{
  "version": "1.0",
  "truncation": null,
  "padding": null,
  "added_tokens": [
    {
      "id": 0,
      "content": "[UNK]",
      "single_word": false,
      "lstrip": false,
      "rstrip": false,
      "normalized": false,
      "special": true
    },
    {
      "id": 1,
      "content": "[PAD]",
      "single_word": false,
      "lstrip": false,
      "rstrip": false,
      "normalized": false,
      "special": true
    },
    {
      "id": 2,
      "content": "[SEP]",
      "single_word": false,
      "lstrip": false,
      "rstrip": false,
      "normalized": false,
      "special": true
    },
    {
      "id": 3,
      "content": "[CLS]",
      "single_word": false,
      "lstrip": false,
      "rstrip": false,
      "normalized": false,
      "special": true
    },
    {
      "id": 4,
      "content": "[MASK]",
      "single_word": false,
      "lstrip": false,
      "rstrip": false,
      "normalized": false,
      "special": true
    }
  ],
  "normalizer": null,
  "pre_tokenizer": null,
  "post_processor": null,
  "decoder": null,
  "model": {
    "type": "BPE",
    "dropout": null,
    "unk_token": "[UNK]",
    "continuing_subword_prefix": null,
    "end_of_word_suffix": null,
    "fuse_unk": false,
    "byte_fallback": false,
    "ignore_merges": false,
    "vocab": {
      "[UNK]": 0,
      "[PAD]": 1,
      "[SEP]": 2,
      "[CLS]": 3,
      "[MASK]": 4,
      "!": 5,
      "\"": 6,
      "#": 7,
      "$": 8,
      "%": 9,
      "&": 10,
      "'": 11,
      "(": 12,
      ")": 13,
      "*": 14,
      "+": 15,
      ",": 16,
      "-": 17,
      ".": 18,
      "/": 19,
      "0": 20,
      "1": 21,
      "2": 22,
      "3": 23,
      "4": 24,
      "5": 25,
      "6": 26,
      "7": 27,
      "8": 28,
      "9": 29,
      ":": 30,
      ";": 31,
      "<": 32,
      "=": 33,
      ">": 34,
      "?": 35,
      "@": 36,
      "A": 37,
      "B": 38,
      "C": 39,
      "D": 40,
      "E": 41,
      "F": 42,
      "G": 43,
      "H": 44,
      "I": 45,
      "J": 46,
      "K": 47,
      "L": 48,
      "M": 49,
      "N": 50,
      "O": 51,
      "P": 52,
      "Q": 53,
      "R": 54,
      "S": 55,
      "T": 56,
      "U": 57,
      "V": 58,
      "W": 59,
      "X": 60,
      "Y": 61,
      "Z": 62,
      "[": 63,
      "\\": 64,
      "]": 65,
      "^": 66,
      "_": 67,
      "`": 68,
      "a": 69,
      "b": 70,
      "c": 71,
      "d": 72,
      "e": 73,
      "f": 74,
      "g": 75,
      "h": 76,
      "i": 77,
      "j": 78,
      "k": 79,
      "l": 80,
      "m": 81,
      "n": 82,
      "o": 83,
      "p": 84,
      "q": 85,
      "r": 86,
      "s": 87,
      "t": 88,
      "u": 89,
      "v": 90,
      "w": 91,
      "x": 92,
      "y": 93,
      "z": 94,
      "{": 95,
      "|": 96,
      "}": 97,
      "~": 98,
      "": 99,
      "¡": 100,
      "£": 101,
      "¥": 102,
      "¦": 103,
      "§": 104,
      "©": 105,
      "ª": 106,
      "«": 107,
      "¬": 108,
      "­": 109,
      "®": 110,
      "°": 111,
      "±": 112,
      "´": 113,
      "·": 114,
      "¸": 115,
      "º": 116,
      "»": 117,
      "¼": 118,
      "½": 119,
      "¾": 120,
      "¿": 121,
      "É": 122,
      "Ð": 123,
      "×": 124,
      "ß": 125,
      "à": 126,
      "á": 127,
      "â": 128,
      "ã": 129,
      "ä": 130,
      "å": 131,
      "æ": 132,
      "ç": 133,
      "è": 134,
      "é": 135,
      "ê": 136,
      "ë": 137,
      "í": 138,
      "î": 139,
      "ï": 140,
      "ñ": 141,
      "ò": 142,
      "ó": 143,
      "ô": 144,
      "õ": 145,
      "ö": 146,
      "ù": 147,
      "ú": 148,
      "û": 149,
      "ü": 150,
      "ý": 151,
      "ā": 152,
      "ă": 153,
      "ą": 154,
      "ć": 155,
      "č": 156,
      "ē": 157,
      "ę": 158,
      "ě": 159,
      "ğ": 160,
      "ģ": 161,
      "ī": 162,
      "ķ": 163,
      "ļ": 164,
      "ł": 165,
      "ń": 166,
      "ņ": 167,
      "ň": 168,
      "ő": 169,
      "œ": 170,
      "ř": 171,
      "ś": 172,
      "ş": 173,
      "š": 174,
      "ū": 175,
      "ŭ": 176,
      "ź": 177,
      "ż": 178,
      "ž": 179,
      "ʼ": 180,
      "˚": 181,
      "̀": 182,
      "́": 183,
      "΄": 184,
      "ά": 185,
      "ή": 186,
      "α": 187,
      "β": 188,
      "γ": 189,
      "δ": 190,
      "ε": 191,
      "θ": 192,
      "ι": 193,
      "κ": 194,
      "ν": 195,
      "ο": 196,
      "π": 197,
      "ρ": 198,
      "ς": 199,
      "σ": 200,
      "τ": 201,
      "υ": 202,
      "ω": 203,
      "Ё": 204,
      "І": 205,
      "Ј": 206,
      "А": 207,
      "Б": 208,
      "В": 209,
      "Г": 210,
      "Д": 211,
      "Е": 212,
      "Ж": 213,
      "З": 214,
      "И": 215,
      "Й": 216,
      "К": 217,
      "Л": 218,
      "М": 219,
      "Н": 220,
      "О": 221,
      "П": 222,
      "Р": 223,
      "С": 224,
      "Т": 225,
      "У": 226,
      "Ф": 227,
      "Х": 228,
      "Ц": 229,
      "Ч": 230,
      "Ш": 231,
      "Щ": 232,
      "Ы": 233,
      "Ь": 234,
      "Э": 235,
      "Ю": 236,
      "Я": 237,
      "а": 238,
      "б": 239,
      "в": 240,
      "г": 241,
      "д": 242,
      "е": 243,
      "ж": 244,
      "з": 245,
      "и": 246,
      "й": 247,
      "к": 248,
      "л": 249,
      "м": 250,
      "н": 251,
      "о": 252,
      "п": 253,
      "р": 254,
      "с": 255,
      "т": 256,
      "у": 257,
      "ф": 258,
      "х": 259,
      "ц": 260,
      "ч": 261,
      "ш": 262,
      "щ": 263,
      "ъ": 264,
      "ы": 265,
      "ь": 266,
      "э": 267,
      "ю": 268,
      "я": 269,
      "ё": 270,
      "ђ": 271,
      "ѓ": 272,
      "є": 273,
      "ѕ": 274,
      "і": 275,
      "ї": 276,
      "ј": 277,
      "љ": 278,
      "њ": 279,
      "ћ": 280,
      "ѝ": 281,
      "ў": 282,
      "ѣ": 283,
      "ґ": 284,
      "ọ": 285,
      "‑": 286,
      "–": 287,
      "—": 288,
      "―": 289,
      "‘": 290,
      "’": 291,
      "‚": 292,
      "“": 293,
      "”": 294,
      "„": 295,
      "•": 296,
      "…": 297,
      "‰": 298,
      "′": 299,
      "″": 300,
      "‹": 301,
      "›": 302,
      "₤": 303,
      "€": 304,
      "№": 305,
      "™": 306,
      "−": 307,
      "∙": 308,
      "♀": 309,
      "♂": 310,
      "さ": 311,
      "す": 312,
      "っ": 313,
      "て": 314,
      "は": 315,
      "ぼ": 316,
      "を": 317,
      "余": 318,
      "倍": 319,
      "可": 320,
      "奇": 321,
      "好": 322,
      "心": 323,
      "愛": 324,
      "憎": 325,
      "捨": 326,
      "滅": 327,
      "百": 328,
      "石": 329,
      "身": 330,
      "": 331,
      "": 332,
      "": 333,
      "﻿": 334,
      "то": 335,
      "на": 336,
      "но": 337,
      "по": 338,
      "не": 339,
      "ст": 340,
      "ко": 341,
      "ра": 342,
      "ни": 343,
      "ро": 344,
      "ал": 345,
      "го": 346,
      "ка": 347,
      "ре": 348,
      "во": 349,
      "ли": 350,
      "ла": 351,
      "ве": 352,
      "ло": 353,
      "ри": 354,
      "ть": 355,
      "де": 356,
      "те": 357,
      "ва": 358,
      "за": 359,
      "ле": 360,
      "ся": 361,
      "ме": 362,
      "да": 363,
      "до": 364,
      "мо": 365,
      "ны": 366,
      "ль": 367,
      "та": 368,
      "че": 369,
      "же": 370,
      "се": 371,
      "ми": 372,
      "ви": 373,
      "бы": 374,
      "сь": 375,
      "ки": 376,
      "ну": 377,
      "ти": 378,
      "со": 379,
      "что": 380,
      "про": 381,
      "ру": 382,
      "от": 383,
      "вы": 384,
      "ди": 385,
      "ма": 386,
      "бо": 387,
      "пе": 388,
      "при": 389,
      "бе": 390,
      "ше": 391,
      "он": 392,
      "му": 393,
      "хо": 394,
      "сто": 395,
      "из": 396,
      "си": 397,
      "чи": 398,
      "ку": 399,
      "это": 400,
      "ля": 401,
      "ста": 402,
      "ши": 403,
      "ду": 404,
      "ня": 405,
      "са": 406,
      "об": 407,
      "ры": 408,
      "ча": 409,
      "раз": 410,
      "вал": 411,
      "ще": 412,
      "все": 413,
      "па": 414,
      "ты": 415,
      "нно": 416,
      "жи": 417,
      "лу": 418,
      "ско": 419,
      "сти": 420,
      "его": 421,
      "как": 422,
      "ние": 423,
      "мы": 424,
      "га": 425,
      "ет": 426,
      "пре": 427,
      "вер": 428,
      "пи": 429,
      "бу": 430,
      "лю": 431,
      "ска": 432,
      "ту": 433,
      "ря": 434,
      "под": 435,
      "лся": 436,
      "нь": 437,
      "зна": 438,
      "ала": 439,
      "сть": 440,
      "ния": 441,
      "нны": 442,
      "це": 443,
      "али": 444,
      "щи": 445,
      "би": 446,
      "сво": 447,
      "ги": 448,
      "она": 449,
      "су": 450,
      "ной": 451,
      "тель": 452,
      "гда": 453,
      "пу": 454,
      "сле": 455,
      "ться": 456,
      "кото": 457,
      "пере": 458,
      "ци": 459,
      "сте": 460,
      "так": 461,
      "ву": 462,
      "жа": 463,
      "ба": 464,
      "ски": 465,
      "лько": 466,
      "аль": 467,
      "рас": 468,
      "ша": 469,
      "пра": 470,
      "ного": 471,
      "ке": 472,
      "лы": 473,
      "ком": 474,
      "ды": 475,
      "гла": 476,
      "ца": 477,
      "кой": 478,
      "гу": 479,
      "сли": 480,
      "тся": 481,
      "мне": 482,
      "ало": 483,
      "воз": 484,
      "шь": 485,
      "спо": 486,
      "дру": 487,
      "чу": 488,
      "было": 489,
      "ство": 490,
      "они": 491,
      "их": 492,
      "пер": 493,
      "ный": 494,
      "когда": 495,
      "жно": 496,
      "ск": 497,
      "тре": 498,
      "меня": 499,
      "том": 500,
      "од": 501,
      "ем": 502,
      "ее": 503,
      "ные": 504,
      "he": 505,
      "сло": 506,
      "лась": 507,
      "in": 508,
      "ха": 509,
      "сказ": 510,
      "гово": 511,
      "дь": 512,
      "вши": 513,
      "ей": 514,
      "вре": 515,
      "вз": 516,
      "чно": 517,
      "стра": 518,
      "был": 519,
      "вно": 520,
      "дол": 521,
      "слу": 522,
      "an": 523,
      "мя": 524,
      "только": 525,
      "боль": 526,
      "кон": 527,
      "ных": 528,
      "кто": 529,
      "нул": 530,
      "ге": 531,
      "бя": 532,
      "вать": 533,
      "каз": 534,
      "лись": 535,
      "голо": 536,
      "смо": 537,
      "еще": 538,
      "ная": 539,
      "которы": 540,
      "уже": 541,
      "ходи": 542,
      "стве": 543,
      "вой": 544,
      "если": 545,
      "для": 546,
      "ин": 547,
      "пы": 548,
      "нет": 549,
      "пред": 550,
      "ему": 551,
      "чем": 552,
      "ным": 553,
      "зо": 554,
      "вле": 555,
      "пол": 556,
      "сту": 557,
      "зи": 558,
      "сно": 559,
      "er": 560,
      "вали": 561,
      "ром": 562,
      "гля": 563,
      "чтобы": 564,
      "стоя": 565,
      "ков": 566,
      "гра": 567,
      "але": 568,
      "дела": 569,
      "кры": 570,
      "дет": 571,
      "en": 572,
      "тельно": 573,
      "ется": 574,
      "дя": 575,
      "стро": 576,
      "ался": 577,
      "ют": 578,
      "вет": 579,
      "ную": 580,
      "бра": 581,
      "ща": 582,
      "или": 583,
      "лось": 584,
      "после": 585,
      "дел": 586,
      "тя": 587,
      "стре": 588,
      "сы": 589,
      "the": 590,
      "ор": 591,
      "може": 592,
      "ней": 593,
      "мер": 594,
      "три": 595,
      "тем": 596,
      "него": 597,
      "дер": 598,
      "чего": 599,
      "кра": 600,
      "ров": 601,
      "нее": 602,
      "без": 603,
      "оста": 604,
      "говори": 605,
      "ан": 606,
      "пла": 607,
      "нии": 608,
      "ис": 609,
      "вот": 610,
      "им": 611,
      "рез": 612,
      "ним": 613,
      "on": 614,
      "дно": 615,
      "лове": 616,
      "вя": 617,
      "вая": 618,
      "фи": 619,
      "оче": 620,
      "дей": 621,
      "сказал": 622,
      "дом": 623,
      "челове": 624,
      "име": 625,
      "тра": 626,
      "вля": 627,
      "само": 628,
      "ющи": 629,
      "можно": 630,
      "нима": 631,
      "жен": 632,
      "нный": 633,
      "дин": 634,
      "спе": 635,
      "ник": 636,
      "шу": 637,
      "даже": 638,
      "re": 639,
      "ний": 640,
      "пле": 641,
      "нем": 642,
      "ника": 643,
      "шо": 644,
      "эти": 645,
      "вала": 646,
      "кру": 647,
      "зы": 648,
      "нач": 649,
      "ном": 650,
      "мен": 651,
      "ства": 652,
      "бро": 653,
      "была": 654,
      "того": 655,
      "стви": 656,
      "at": 657,
      "были": 658,
      "над": 659,
      "тил": 660,
      "проси": 661,
      "чь": 662,
      "тер": 663,
      "зе": 664,
      "там": 665,
      "нас": 666,
      "шел": 667,
      "жу": 668,
      "может": 669,
      "кого": 670,
      "сторо": 671,
      "st": 672,
      "бли": 673,
      "пя": 674,
      "ar": 675,
      "алось": 676,
      "где": 677,
      "кро": 678,
      "чер": 679,
      "нулся": 680,
      "жде": 681,
      "нные": 682,
      "тно": 683,
      "полу": 684,
      "подо": 685,
      "рь": 686,
      "жал": 687,
      "вто": 688,
      "фе": 689,
      "хи": 690,
      "вра": 691,
      "время": 692,
      "сла": 693,
      "них": 694,
      "сколько": 695,
      "тро": 696,
      "поло": 697,
      "себя": 698,
      "цо": 699,
      "пока": 700,
      "бой": 701,
      "прави": 702,
      "отве": 703,
      "мог": 704,
      "кре": 705,
      "ар": 706,
      "al": 707,
      "лет": 708,
      "коне": 709,
      "кое": 710,
      "as": 711,
      "чески": 712,
      "тру": 713,
      "два": 714,
      "глаза": 715,
      "ской": 716,
      "которо": 717,
      "ed": 718,
      "перед": 719,
      "перь": 720,
      "час": 721,
      "пло": 722,
      "ное": 723,
      "цы": 724,
      "очень": 725,
      "сей": 726,
      "ции": 727,
      "быть": 728,
      "нной": 729,
      "зде": 730,
      "it": 731,
      "теперь": 732,
      "гру": 733,
      "тов": 734,
      "нием": 735,
      "таки": 736,
      "or": 737,
      "хот": 738,
      "вели": 739,
      "просто": 740,
      "нам": 741,
      "ch": 742,
      "смотре": 743,
      "ман": 744,
      "заме": 745,
      "обра": 746,
      "жиз": 747,
      "кар": 748,
      "нных": 749,
      "нов": 750,
      "чув": 751,
      "пря": 752,
      "теле": 753,
      "стави": 754,
      "ались": 755,
      "сты": 756,
      "потом": 757,
      "хоро": 758,
      "будет": 759,
      "этого": 760,
      "хва": 761,
      "зем": 762,
      "све": 763,
      "вс": 764,
      "нула": 765,
      "сме": 766,
      "тому": 767,
      "is": 768,
      "ничего": 769,
      "слы": 770,
      "здесь": 771,
      "мой": 772,
      "раб": 773,
      "больше": 774,
      "есть": 775,
      "es": 776,
      "виде": 777,
      "этот": 778,
      "ou": 779,
      "ешь": 780,
      "тво": 781,
      "род": 782,
      "вам": 783,
      "коро": 784,
      "поня": 785,
      "ского": 786,
      "дума": 787,
      "дум": 788,
      "доро": 789,
      "ками": 790,
      "спроси": 791,
      "тут": 792,
      "to": 793,
      "тив": 794,
      "алась": 795,
      "одна": 796,
      "разу": 797,
      "боле": 798,
      "фа": 799,
      "вый": 800,
      "этом": 801,
      "кри": 802,
      "один": 803,
      "тебя": 804,
      "стью": 805,
      "време": 806,
      "стал": 807,
      "через": 808,
      "сейчас": 809,
      "вас": 810,
      "бле": 811,
      "and": 812,
      "ными": 813,
      "ству": 814,
      "кла": 815,
      "всем": 816,
      "глу": 817,
      "произ": 818,
      "себе": 819,
      "дви": 820,
      "юще": 821,
      "жда": 822,
      "надо": 823,
      "вше": 824,
      "обще": 825,
      "кий": 826,
      "чит": 827,
      "поз": 828,
      "поч": 829,
      "ран": 830,
      "той": 831,
      "тор": 832,
      "нию": 833,
      "дал": 834,
      "нови": 835,
      "льно": 836,
      "соб": 837,
      "зу": 838,
      "вое": 839,
      "тебе": 840,
      "нт": 841,
      "хоте": 842,
      "которые": 843,
      "вало": 844,
      "цу": 845,
      "пор": 846,
      "вшись": 847,
      "дра": 848,
      "щу": 849,
      "ясь": 850,
      "взгля": 851,
      "вые": 852,
      "друго": 853,
      "сер": 854,
      "будь": 855,
      "нного": 856,
      "нным": 857,
      "вался": 858,
      "сси": 859,
      "несколько": 860,
      "день": 861,
      "кие": 862,
      "кая": 863,
      "ост": 864,
      "который": 865,
      "обо": 866,
      "снова": 867,
      "мол": 868,
      "друг": 869,
      "чему": 870,
      "кую": 871,
      "сре": 872,
      "свя": 873,
      "много": 874,
      "вери": 875,
      "шка": 876,
      "прав": 877,
      "шли": 878,
      "сам": 879,
      "ing": 880,
      "обе": 881,
      "ких": 882,
      "тот": 883,
      "гро": 884,
      "дня": 885,
      "фор": 886,
      "куда": 887,
      "of": 888,
      "ведь": 889,
      "года": 890,
      "реши": 891,
      "яви": 892,
      "мар": 893,
      "дело": 894,
      "ню": 895,
      "тоже": 896,
      "уда": 897,
      "бла": 898,
      "жду": 899,
      "объ": 900,
      "помо": 901,
      "th": 902,
      "чет": 903,
      "нес": 904,
      "бира": 905,
      "образ": 906,
      "луч": 907,
      "стя": 908,
      "спи": 909,
      "ский": 910,
      "зать": 911,
      "хотя": 912,
      "встре": 913,
      "тогда": 914,
      "вла": 915,
      "чал": 916,
      "мни": 917,
      "ie": 918,
      "пыт": 919,
      "яс": 920,
      "откры": 921,
      "рабо": 922,
      "ad": 923,
      "нное": 924,
      "тере": 925,
      "пусти": 926,
      "могу": 927,
      "лег": 928,
      "более": 929,
      "ху": 930,
      "возможно": 931,
      "йте": 932,
      "вме": 933,
      "вь": 934,
      "зя": 935,
      "тол": 936,
      "ез": 937,
      "вает": 938,
      "le": 939,
      "нуть": 940,
      "случа": 941,
      "послед": 942,
      "рт": 943,
      "ете": 944,
      "человек": 945,
      "вере": 946,
      "шла": 947,
      "клю": 948,
      "вол": 949,
      "нибудь": 950,
      "всего": 951,
      "почему": 952,
      "тан": 953,
      "ог": 954,
      "крас": 955,
      "буду": 956,
      "ются": 957,
      "всех": 958,
      "жение": 959,
      "жил": 960,
      "подня": 961,
      "сол": 962,
      "ев": 963,
      "ваться": 964,
      "свои": 965,
      "уби": 966,
      "лишь": 967,
      "вся": 968,
      "гор": 969,
      "мет": 970,
      "оказ": 971,
      "други": 972,
      "спа": 973,
      "жды": 974,
      "вых": 975,
      "мину": 976,
      "стно": 977,
      "нд": 978,
      "сс": 979,
      "види": 980,
      "почти": 981,
      "улы": 982,
      "ким": 983,
      "делать": 984,
      "спросил": 985,
      "видел": 986,
      "продол": 987,
      "чита": 988,
      "ках": 989,
      "интере": 990,
      "дово": 991,
      "точно": 992,
      "ок": 993,
      "19": 994,
      "un": 995,
      "il": 996,
      "деле": 997,
      "вший": 998,
      "хра": 999,
      "de": 1000,
      "моло": 1001,
      "обы": 1002,
      "рю": 1003,
      "чувство": 1004,
      "нулась": 1005,
      "осо": 1006,
      "потому": 1007,
      "лом": 1008,
      "женщи": 1009,
      "ция": 1010,
      "зад": 1011,
      "дать": 1012,
      "сов": 1013,
      "деся": 1014,
      "конечно": 1015,
      "слыш": 1016,
      "пар": 1017,
      "пять": 1018,
      "ожи": 1019,
      "шей": 1020,
      "своей": 1021,
      "работ": 1022,
      "стер": 1023,
      "одно": 1024,
      "словно": 1025,
      "кор": 1026,
      "ноги": 1027,
      "хорошо": 1028,
      "дой": 1029,
      "высо": 1030,
      "эта": 1031,
      "наде": 1032,
      "носи": 1033,
      "действи": 1034,
      "каза": 1035,
      "мед": 1036,
      "ских": 1037,
      "вари": 1038,
      "взя": 1039,
      "нная": 1040,
      "ники": 1041,
      "всегда": 1042,
      "лицо": 1043,
      "нами": 1044,
      "знаю": 1045,
      "уди": 1046,
      "дре": 1047,
      "двер": 1048,
      "повер": 1049,
      "se": 1050,
      "вым": 1051,
      "поли": 1052,
      "маши": 1053,
      "коло": 1054,
      "om": 1055,
      "ников": 1056,
      "вне": 1057,
      "фо": 1058,
      "коле": 1059,
      "шло": 1060,
      "самы": 1061,
      "свою": 1062,
      "води": 1063,
      "суще": 1064,
      "дж": 1065,
      "сом": 1066,
      "успе": 1067,
      "рова": 1068,
      "этой": 1069,
      "пал": 1070,
      "вопро": 1071,
      "гото": 1072,
      "слова": 1073,
      "между": 1074,
      "улыб": 1075,
      "рой": 1076,
      "тех": 1077,
      "комна": 1078,
      "сю": 1079,
      "знал": 1080,
      "этому": 1081,
      "пой": 1082,
      "такой": 1083,
      "доста": 1084,
      "кнул": 1085,
      "совер": 1086,
      "нить": 1087,
      "руки": 1088,
      "теля": 1089,
      "вого": 1090,
      "дли": 1091,
      "гре": 1092,
      "похо": 1093,
      "бере": 1094,
      "конец": 1095,
      "исто": 1096,
      "юсь": 1097,
      "изве": 1098,
      "бор": 1099,
      "рая": 1100,
      "какой": 1101,
      "никогда": 1102,
      "против": 1103,
      "дво": 1104,
      "смер": 1105,
      "шком": 1106,
      "чил": 1107,
      "броси": 1108,
      "нове": 1109,
      "кли": 1110,
      "ью": 1111,
      "ору": 1112,
      "мина": 1113,
      "сказала": 1114,
      "лучше": 1115,
      "жить": 1116,
      "am": 1117,
      "ших": 1118,
      "дро": 1119,
      "сказать": 1120,
      "кло": 1121,
      "чки": 1122,
      "дели": 1123,
      "дов": 1124,
      "свет": 1125,
      "нер": 1126,
      "маль": 1127,
      "вни": 1128,
      "жения": 1129,
      "приня": 1130,
      "ственно": 1131,
      "люди": 1132,
      "понима": 1133,
      "горо": 1134,
      "даль": 1135,
      "най": 1136,
      "бри": 1137,
      "мере": 1138,
      "однако": 1139,
      "ходя": 1140,
      "ряд": 1141,
      "кан": 1142,
      "прия": 1143,
      "тить": 1144,
      "большо": 1145,
      "жать": 1146,
      "ответил": 1147,
      "li": 1148,
      "жизни": 1149,
      "шки": 1150,
      "людей": 1151,
      "совсем": 1152,
      "шая": 1153,
      "ir": 1154,
      "кти": 1155,
      "муж": 1156,
      "дере": 1157,
      "ья": 1158,
      "думал": 1159,
      "вну": 1160,
      "паль": 1161,
      "жизнь": 1162,
      "зда": 1163,
      "ющий": 1164,
      "тря": 1165,
      "ступи": 1166,
      "любо": 1167,
      "сем": 1168,
      "говорил": 1169,
      "долго": 1170,
      "сколь": 1171,
      "своих": 1172,
      "нару": 1173,
      "be": 1174,
      "люби": 1175,
      "навер": 1176,
      "ent": 1177,
      "гли": 1178,
      "сами": 1179,
      "лли": 1180,
      "тия": 1181,
      "именно": 1182,
      "писа": 1183,
      "шего": 1184,
      "следу": 1185,
      "слишком": 1186,
      "вались": 1187,
      "внима": 1188,
      "смотрел": 1189,
      "своего": 1190,
      "дали": 1191,
      "ская": 1192,
      "ом": 1193,
      "авто": 1194,
      "собой": 1195,
      "вар": 1196,
      "ит": 1197,
      "si": 1198,
      "сдел": 1199,
      "дца": 1200,
      "no": 1201,
      "показ": 1202,
      "ван": 1203,
      "нужно": 1204,
      "ские": 1205,
      "коман": 1206,
      "вос": 1207,
      "голову": 1208,
      "чина": 1209,
      "долж": 1210,
      "блю": 1211,
      "ход": 1212,
      "ві": 1213,
      "тила": 1214,
      "согла": 1215,
      "весь": 1216,
      "дова": 1217,
      "испо": 1218,
      "уж": 1219,
      "быстро": 1220,
      "жела": 1221,
      "руку": 1222,
      "мор": 1223,
      "ску": 1224,
      "круг": 1225,
      "сразу": 1226,
      "рии": 1227,
      "спокой": 1228,
      "свой": 1229,
      "ньше": 1230,
      "зву": 1231,
      "чка": 1232,
      "дву": 1233,
      "времени": 1234,
      "позво": 1235,
      "нил": 1236,
      "буд": 1237,
      "находи": 1238,
      "госпо": 1239,
      "нему": 1240,
      "вдруг": 1241,
      "кол": 1242,
      "еди": 1243,
      "запа": 1244,
      "цев": 1245,
      "воло": 1246,
      "мент": 1247,
      "деву": 1248,
      "скоре": 1249,
      "пове": 1250,
      "затем": 1251,
      "вод": 1252,
      "ставля": 1253,
      "нта": 1254,
      "дже": 1255,
      "вил": 1256,
      "кому": 1257,
      "тон": 1258,
      "дома": 1259,
      "вших": 1260,
      "рядом": 1261,
      "воро": 1262,
      "ак": 1263,
      "разве": 1264,
      "ленно": 1265,
      "ум": 1266,
      "бер": 1267,
      "хе": 1268,
      "работа": 1269,
      "ro": 1270,
      "спу": 1271,
      "тели": 1272,
      "цию": 1273,
      "наконец": 1274,
      "никто": 1275,
      "дале": 1276,
      "голос": 1277,
      "опа": 1278,
      "сюда": 1279,
      "мале": 1280,
      "твер": 1281,
      "вшие": 1282,
      "ском": 1283,
      "im": 1284,
      "нными": 1285,
      "ил": 1286,
      "нную": 1287,
      "дем": 1288,
      "убе": 1289,
      "оно": 1290,
      "валась": 1291,
      "оде": 1292,
      "каже": 1293,
      "вместе": 1294,
      "стой": 1295,
      "соверше": 1296,
      "дох": 1297,
      "тал": 1298,
      "ответ": 1299,
      "ol": 1300,
      "свобо": 1301,
      "мир": 1302,
      "рен": 1303,
      "нув": 1304,
      "должен": 1305,
      "чить": 1306,
      "останови": 1307,
      "назад": 1308,
      "телей": 1309,
      "кни": 1310,
      "нах": 1311,
      "кам": 1312,
      "держи": 1313,
      "увере": 1314,
      "малень": 1315,
      "будто": 1316,
      "част": 1317,
      "возду": 1318,
      "человека": 1319,
      "чуть": 1320,
      "две": 1321,
      "ion": 1322,
      "стало": 1323,
      "мира": 1324,
      "пола": 1325,
      "свое": 1326,
      "силь": 1327,
      "рую": 1328,
      "el": 1329,
      "пыта": 1330,
      "оте": 1331,
      "жала": 1332,
      "дверь": 1333,
      "стали": 1334,
      "сего": 1335,
      "дар": 1336,
      "тый": 1337,
      "ожида": 1338,
      "значит": 1339,
      "которой": 1340,
      "лей": 1341,
      "ред": 1342,
      "прямо": 1343,
      "холо": 1344,
      "бес": 1345,
      "знать": 1346,
      "вом": 1347,
      "id": 1348,
      "явля": 1349,
      "шим": 1350,
      "уме": 1351,
      "эту": 1352,
      "ac": 1353,
      "тери": 1354,
      "обла": 1355,
      "стара": 1356,
      "всё": 1357,
      "которых": 1358,
      "вую": 1359,
      "другой": 1360,
      "иск": 1361,
      "такое": 1362,
      "лов": 1363,
      "дить": 1364,
      "вспо": 1365,
      "собира": 1366,
      "тай": 1367,
      "ули": 1368,
      "место": 1369,
      "зре": 1370,
      "дель": 1371,
      "нера": 1372,
      "ними": 1373,
      "лен": 1374,
      "город": 1375,
      "ток": 1376,
      "сегодня": 1377,
      "шно": 1378,
      "фу": 1379,
      "давно": 1380,
      "тяже": 1381,
      "вид": 1382,
      "ех": 1383,
      "сен": 1384,
      "пера": 1385,
      "ic": 1386,
      "побе": 1387,
      "эр": 1388,
      "ший": 1389,
      "поле": 1390,
      "начала": 1391,
      "уче": 1392,
      "правда": 1393,
      "вается": 1394,
      "ющих": 1395,
      "тки": 1396,
      "фран": 1397,
      "веро": 1398,
      "щая": 1399,
      "пись": 1400,
      "рил": 1401,
      "скоро": 1402,
      "вел": 1403,
      "доб": 1404,
      "свер": 1405,
      "уй": 1406,
      "ден": 1407,
      "гов": 1408,
      "зло": 1409,
      "чной": 1410,
      "стей": 1411,
      "шую": 1412,
      "сторону": 1413,
      "подоб": 1414,
      "эн": 1415,
      "ющие": 1416,
      "немного": 1417,
      "шку": 1418,
      "полне": 1419,
      "объяс": 1420,
      "чку": 1421,
      "цен": 1422,
      "кал": 1423,
      "эк": 1424,
      "которая": 1425,
      "гер": 1426,
      "мал": 1427,
      "медленно": 1428,
      "зав": 1429,
      "валось": 1430,
      "говорить": 1431,
      "сса": 1432,
      "ально": 1433,
      "счита": 1434,
      "появи": 1435,
      "ab": 1436,
      "знако": 1437,
      "хотел": 1438,
      "своим": 1439,
      "щий": 1440,
      "этим": 1441,
      "ночь": 1442,
      "туда": 1443,
      "учи": 1444,
      "ur": 1445,
      "вести": 1446,
      "головой": 1447,
      "помни": 1448,
      "кажется": 1449,
      "вшего": 1450,
      "возь": 1451,
      "часть": 1452,
      "бен": 1453,
      "стала": 1454,
      "ходит": 1455,
      "теря": 1456,
      "огром": 1457,
      "всю": 1458,
      "среди": 1459,
      "игра": 1460,
      "вают": 1461,
      "которого": 1462,
      "мной": 1463,
      "was": 1464,
      "рей": 1465,
      "te": 1466,
      "верну": 1467,
      "дил": 1468,
      "щё": 1469,
      "ье": 1470,
      "этих": 1471,
      "зве": 1472,
      "равно": 1473,
      "пала": 1474,
      "стар": 1475,
      "держа": 1476,
      "тыся": 1477,
      "рус": 1478,
      "стру": 1479,
      "нок": 1480,
      "отли": 1481,
      "кажды": 1482,
      "мое": 1483,
      "гна": 1484,
      "вай": 1485,
      "ay": 1486,
      "лый": 1487,
      "мон": 1488,
      "ством": 1489,
      "ница": 1490,
      "капи": 1491,
      "кораб": 1492,
      "вообще": 1493,
      "sh": 1494,
      "нце": 1495,
      "мало": 1496,
      "настоя": 1497,
      "которое": 1498,
      "правле": 1499,
      "совершенно": 1500,
      "рия": 1501,
      "един": 1502,
      "уго": 1503,
      "пожал": 1504,
      "вокруг": 1505,
      "ого": 1506,
      "части": 1507,
      "отно": 1508,
      "проти": 1509,
      "поэтому": 1510,
      "чать": 1511,
      "четы": 1512,
      "реше": 1513,
      "слуша": 1514,
      "хозя": 1515,
      "надца": 1516,
      "чный": 1517,
      "шие": 1518,
      "нель": 1519,
      "мени": 1520,
      "взгляд": 1521,
      "рассказ": 1522,
      "скры": 1523,
      "осталь": 1524,
      "гал": 1525,
      "одного": 1526,
      "av": 1527,
      "тур": 1528,
      "состоя": 1529,
      "понял": 1530,
      "мыс": 1531,
      "радо": 1532,
      "сил": 1533,
      "начал": 1534,
      "роди": 1535,
      "жали": 1536,
      "ужа": 1537,
      "кив": 1538,
      "ктор": 1539,
      "гри": 1540,
      "ради": 1541,
      "кроме": 1542,
      "сон": 1543,
      "проис": 1544,
      "мах": 1545,
      "действительно": 1546,
      "спра": 1547,
      "qu": 1548,
      "нра": 1549,
      "бар": 1550,
      "ливо": 1551,
      "гар": 1552,
      "сама": 1553,
      "гло": 1554,
      "чение": 1555,
      "чая": 1556,
      "ское": 1557,
      "ваясь": 1558,
      "собстве": 1559,
      "сделать": 1560,
      "оби": 1561,
      "мери": 1562,
      "хоть": 1563,
      "хов": 1564,
      "казалось": 1565,
      "стол": 1566,
      "вин": 1567,
      "стороны": 1568,
      "рак": 1569,
      "эль": 1570,
      "стоит": 1571,
      "сомне": 1572,
      "ощу": 1573,
      "нули": 1574,
      "тился": 1575,
      "дете": 1576,
      "рик": 1577,
      "съ": 1578,
      "чай": 1579,
      "широ": 1580,
      "сут": 1581,
      "ях": 1582,
      "ещё": 1583,
      "ности": 1584,
      "помощ": 1585,
      "пис": 1586,
      "обходи": 1587,
      "собра": 1588,
      "мся": 1589,
      "одной": 1590,
      "способ": 1591,
      "защи": 1592,
      "ино": 1593,
      "po": 1594,
      "ото": 1595,
      "лин": 1596,
      "места": 1597,
      "её": 1598,
      "двух": 1599,
      "каме": 1600,
      "случае": 1601,
      "особе": 1602,
      "et": 1603,
      "заня": 1604,
      "прежде": 1605,
      "самом": 1606,
      "бан": 1607,
      "короле": 1608,
      "уни": 1609,
      "ly": 1610,
      "льзо": 1611,
      "кля": 1612,
      "лой": 1613,
      "какие": 1614,
      "lo": 1615,
      "вич": 1616,
      "цов": 1617,
      "закры": 1618,
      "предло": 1619,
      "di": 1620,
      "тые": 1621,
      "могли": 1622,
      "сили": 1623,
      "рок": 1624,
      "станови": 1625,
      "поме": 1626,
      "щей": 1627,
      "получи": 1628,
      "ваше": 1629,
      "большой": 1630,
      "совет": 1631,
      "ана": 1632,
      "тами": 1633,
      "гом": 1634,
      "вания": 1635,
      "яр": 1636,
      "разгово": 1637,
      "едва": 1638,
      "ver": 1639,
      "тен": 1640,
      "таким": 1641,
      "пом": 1642,
      "ні": 1643,
      "ческой": 1644,
      "скую": 1645,
      "след": 1646,
      "офи": 1647,
      "алек": 1648,
      "ag": 1649,
      "мальчи": 1650,
      "мысли": 1651,
      "вен": 1652,
      "май": 1653,
      "назы": 1654,
      "рк": 1655,
      "for": 1656,
      "опять": 1657,
      "бре": 1658,
      "маги": 1659,
      "которую": 1660,
      "приш": 1661,
      "шта": 1662,
      "заметил": 1663,
      "конце": 1664,
      "мои": 1665,
      "ut": 1666,
      "наблю": 1667,
      "кончи": 1668,
      "пара": 1669,
      "меч": 1670,
      "видеть": 1671,
      "чат": 1672,
      "минут": 1673,
      "нном": 1674,
      "сред": 1675,
      "матери": 1676,
      "увидел": 1677,
      "благода": 1678,
      "друга": 1679,
      "чные": 1680,
      "возвра": 1681,
      "ступ": 1682,
      "каж": 1683,
      "дальше": 1684,
      "ина": 1685,
      "опре": 1686,
      "могла": 1687,
      "хочу": 1688,
      "емы": 1689,
      "зада": 1690,
      "столько": 1691,
      "отноше": 1692,
      "ницы": 1693,
      "моя": 1694,
      "смотри": 1695,
      "that": 1696,
      "край": 1697,
      "видно": 1698,
      "мом": 1699,
      "сове": 1700,
      "сви": 1701,
      "призна": 1702,
      "многи": 1703,
      "орга": 1704,
      "ig": 1705,
      "роде": 1706,
      "вами": 1707,
      "месте": 1708,
      "кори": 1709,
      "эй": 1710,
      "мг": 1711,
      "приходи": 1712,
      "нуж": 1713,
      "необходи": 1714,
      "сан": 1715,
      "рази": 1716,
      "тили": 1717,
      "груп": 1718,
      "вли": 1719,
      "хом": 1720,
      "тера": 1721,
      "прекрас": 1722,
      "хоче": 1723,
      "тело": 1724,
      "нор": 1725,
      "восто": 1726,
      "сне": 1727,
      "правля": 1728,
      "думаю": 1729,
      "семь": 1730,
      "цве": 1731,
      "момент": 1732,
      "горе": 1733,
      "отправи": 1734,
      "ствие": 1735,
      "случи": 1736,
      "сел": 1737,
      "щих": 1738,
      "пода": 1739,
      "вече": 1740,
      "вшей": 1741,
      "лек": 1742,
      "ak": 1743,
      "ставить": 1744,
      "строе": 1745,
      "бога": 1746,
      "исче": 1747,
      "язы": 1748,
      "цей": 1749,
      "пора": 1750,
      "каждый": 1751,
      "мгнове": 1752,
      "тий": 1753,
      "вопрос": 1754,
      "прово": 1755,
      "зачем": 1756,
      "лез": 1757,
      "отец": 1758,
      "приказ": 1759,
      "оружи": 1760,
      "знает": 1761,
      "четыре": 1762,
      "що": 1763,
      "говоря": 1764,
      "доволь": 1765,
      "док": 1766,
      "чей": 1767,
      "золо": 1768,
      "должны": 1769,
      "окру": 1770,
      "кт": 1771,
      "чала": 1772,
      "нельзя": 1773,
      "кова": 1774,
      "пример": 1775,
      "сдела": 1776,
      "достаточно": 1777,
      "рай": 1778,
      "сере": 1779,
      "стать": 1780,
      "дала": 1781,
      "низ": 1782,
      "хло": 1783,
      "лица": 1784,
      "сооб": 1785,
      "благо": 1786,
      "нности": 1787,
      "строи": 1788,
      "такие": 1789,
      "мей": 1790,
      "жили": 1791,
      "также": 1792,
      "em": 1793,
      "вперед": 1794,
      "ган": 1795,
      "бур": 1796,
      "ским": 1797,
      "вероя": 1798,
      "so": 1799,
      "чных": 1800,
      "гром": 1801,
      "наз": 1802,
      "ческих": 1803,
      "щую": 1804,
      "ющего": 1805,
      "повто": 1806,
      "глав": 1807,
      "серд": 1808,
      "веде": 1809,
      "рот": 1810,
      "хотелось": 1811,
      "слышал": 1812,
      "раньше": 1813,
      "начина": 1814,
      "нау": 1815,
      "согласи": 1816,
      "убий": 1817,
      "выгля": 1818,
      "либо": 1819,
      "дцать": 1820,
      "наши": 1821,
      "зап": 1822,
      "остро": 1823,
      "привы": 1824,
      "пусть": 1825,
      "щего": 1826,
      "самого": 1827,
      "решил": 1828,
      "сделал": 1829,
      "ссо": 1830,
      "la": 1831,
      "посмотрел": 1832,
      "мини": 1833,
      "генера": 1834,
      "щие": 1835,
      "попыт": 1836,
      "тихо": 1837,
      "мов": 1838,
      "ступа": 1839,
      "18": 1840,
      "созда": 1841,
      "следова": 1842,
      "тая": 1843,
      "ce": 1844,
      "единстве": 1845,
      "глубо": 1846,
      "случай": 1847,
      "кров": 1848,
      "удиви": 1849,
      "тел": 1850,
      "англи": 1851,
      "рый": 1852,
      "мно": 1853,
      "сма": 1854,
      "лан": 1855,
      "стоял": 1856,
      "кими": 1857,
      "вание": 1858,
      "чувствовал": 1859,
      "нки": 1860,
      "нения": 1861,
      "дется": 1862,
      "вспомни": 1863,
      "должно": 1864,
      "con": 1865,
      "щение": 1866,
      "рода": 1867,
      "выра": 1868,
      "руко": 1869,
      "меся": 1870,
      "тых": 1871,
      "завтра": 1872,
      "сра": 1873,
      "знаешь": 1874,
      "чения": 1875,
      "us": 1876,
      "первый": 1877,
      "пришлось": 1878,
      "солда": 1879,
      "ющей": 1880,
      "кус": 1881,
      "боя": 1882,
      "воск": 1883,
      "ником": 1884,
      "явле": 1885,
      "ств": 1886,
      "чали": 1887,
      "других": 1888,
      "обя": 1889,
      "произо": 1890,
      "довольно": 1891,
      "сила": 1892,
      "нрави": 1893,
      "неожида": 1894,
      "тала": 1895,
      "спросила": 1896,
      "нулись": 1897,
      "похоже": 1898,
      "далось": 1899,
      "нев": 1900,
      "мая": 1901,
      "логи": 1902,
      "ген": 1903,
      "моей": 1904,
      "подумал": 1905,
      "причи": 1906,
      "wh": 1907,
      "беспо": 1908,
      "лые": 1909,
      "рукой": 1910,
      "стан": 1911,
      "созна": 1912,
      "ap": 1913,
      "вполне": 1914,
      "джи": 1915,
      "пят": 1916,
      "глаз": 1917,
      "гами": 1918,
      "мысле": 1919,
      "известно": 1920,
      "будут": 1921,
      "наш": 1922,
      "недо": 1923,
      "думать": 1924,
      "рами": 1925,
      "уль": 1926,
      "плохо": 1927,
      "нена": 1928,
      "далеко": 1929,
      "do": 1930,
      "став": 1931,
      "зво": 1932,
      "фон": 1933,
      "какое": 1934,
      "00": 1935,
      "эм": 1936,
      "верх": 1937,
      "вить": 1938,
      "ян": 1939,
      "сед": 1940,
      "смотреть": 1941,
      "обяза": 1942,
      "мать": 1943,
      "серь": 1944,
      "mo": 1945,
      "откуда": 1946,
      "чного": 1947,
      "коль": 1948,
      "обре": 1949,
      "ность": 1950,
      "пли": 1951,
      "ne": 1952,
      "жало": 1953,
      "потре": 1954,
      "образом": 1955,
      "преж": 1956,
      "представля": 1957,
      "нова": 1958,
      "тит": 1959,
      "бом": 1960,
      "ровать": 1961,
      "щения": 1962,
      "лета": 1963,
      "ческие": 1964,
      "жила": 1965,
      "нью": 1966,
      "скорее": 1967,
      "ен": 1968,
      "судь": 1969,
      "me": 1970,
      "двери": 1971,
      "амери": 1972,
      "ями": 1973,
      "обнару": 1974,
      "иска": 1975,
      "чество": 1976,
      "тка": 1977,
      "прибли": 1978,
      "bo": 1979,
      "ладно": 1980,
      "зави": 1981,
      "грани": 1982,
      "поро": 1983,
      "ter": 1984,
      "джа": 1985,
      "пры": 1986,
      "пути": 1987,
      "женщина": 1988,
      "ждать": 1989,
      "помина": 1990,
      "секу": 1991,
      "шать": 1992,
      "госу": 1993,
      "кивнул": 1994,
      "протя": 1995,
      "девушка": 1996,
      "видимо": 1997,
      "чё": 1998,
      "сна": 1999,
      "зеле": 2000,
      "другие": 2001,
      "сердце": 2002,
      "мыш": 2003,
      "такого": 2004,
      "сня": 2005,
      "молча": 2006,
      "часто": 2007,
      "сни": 2008,
      "легко": 2009,
      "вернулся": 2010,
      "ставил": 2011,
      "чо": 2012,
      "иде": 2013,
      "потеря": 2014,
      "исчез": 2015,
      "началь": 2016,
      "скло": 2017,
      "особенно": 2018,
      "добро": 2019,
      "вновь": 2020,
      "осторо": 2021,
      "цион": 2022,
      "вздох": 2023,
      "оди": 2024,
      "нг": 2025,
      "кои": 2026,
      "пробле": 2027,
      "ческий": 2028,
      "мак": 2029,
      "друз": 2030,
      "ставле": 2031,
      "зь": 2032,
      "графи": 2033,
      "полно": 2034,
      "говорит": 2035,
      "тельный": 2036,
      "пожалуй": 2037,
      "форма": 2038,
      "арми": 2039,
      "su": 2040,
      "какая": 2041,
      "эл": 2042,
      "наверное": 2043,
      "бое": 2044,
      "глазами": 2045,
      "мужчи": 2046,
      "превра": 2047,
      "йти": 2048,
      "могут": 2049,
      "осно": 2050,
      "выше": 2051,
      "дут": 2052,
      "терпе": 2053,
      "pr": 2054,
      "ат": 2055,
      "году": 2056,
      "зал": 2057,
      "веря": 2058,
      "хри": 2059,
      "гляды": 2060,
      "попа": 2061,
      "росси": 2062,
      "ich": 2063,
      "лес": 2064,
      "ческого": 2065,
      "дит": 2066,
      "стран": 2067,
      "лик": 2068,
      "дни": 2069,
      "воду": 2070,
      "лично": 2071,
      "посте": 2072,
      "первые": 2073,
      "чным": 2074,
      "тащи": 2075,
      "земли": 2076,
      "плы": 2077,
      "неу": 2078,
      "жет": 2079,
      "нность": 2080,
      "обычно": 2081,
      "тесь": 2082,
      "рассказы": 2083,
      "ваю": 2084,
      "зако": 2085,
      "мел": 2086,
      "хода": 2087,
      "чами": 2088,
      "ждения": 2089,
      "каби": 2090,
      "кур": 2091,
      "мра": 2092,
      "извест": 2093,
      "деть": 2094,
      "доба": 2095,
      "рна": 2096,
      "лок": 2097,
      "брать": 2098,
      "около": 2099,
      "темно": 2100,
      "посе": 2101,
      "воды": 2102,
      "нос": 2103,
      "столь": 2104,
      "право": 2105,
      "второй": 2106,
      "звез": 2107,
      "сот": 2108,
      "тах": 2109,
      "смея": 2110,
      "сквозь": 2111,
      "следо": 2112,
      "стри": 2113,
      "пали": 2114,
      "существо": 2115,
      "придется": 2116,
      "тельство": 2117,
      "год": 2118,
      "постоя": 2119,
      "tr": 2120,
      "дался": 2121,
      "дости": 2122,
      "тие": 2123,
      "поль": 2124,
      "самое": 2125,
      "чен": 2126,
      "мимо": 2127,
      "кола": 2128,
      "видела": 2129,
      "сми": 2130,
      "прин": 2131,
      "карти": 2132,
      "схва": 2133,
      "смотря": 2134,
      "готов": 2135,
      "уз": 2136,
      "бил": 2137,
      "рить": 2138,
      "ld": 2139,
      "ствует": 2140,
      "пти": 2141,
      "хол": 2142,
      "интересо": 2143,
      "тельства": 2144,
      "бря": 2145,
      "удивле": 2146,
      "поря": 2147,
      "лест": 2148,
      "одну": 2149,
      "мати": 2150,
      "ясно": 2151,
      "направи": 2152,
      "wit": 2153,
      "ид": 2154,
      "наше": 2155,
      "близ": 2156,
      "дам": 2157,
      "дор": 2158,
      "ут": 2159,
      "вное": 2160,
      "дыха": 2161,
      "вниз": 2162,
      "оши": 2163,
      "гнул": 2164,
      "горя": 2165,
      "оба": 2166,
      "тобой": 2167,
      "креп": 2168,
      "внезап": 2169,
      "удалось": 2170,
      "таких": 2171,
      "гря": 2172,
      "тым": 2173,
      "вероятно": 2174,
      "живот": 2175,
      "произнес": 2176,
      "мель": 2177,
      "специ": 2178,
      "цами": 2179,
      "разли": 2180,
      "весе": 2181,
      "his": 2182,
      "шал": 2183,
      "деньги": 2184,
      "iv": 2185,
      "чиво": 2186,
      "стов": 2187,
      "крови": 2188,
      "виду": 2189,
      "гой": 2190,
      "впро": 2191,
      "щее": 2192,
      "опусти": 2193,
      "руках": 2194,
      "кня": 2195,
      "спокойно": 2196,
      "котором": 2197,
      "честве": 2198,
      "систе": 2199,
      "дней": 2200,
      "нка": 2201,
      "fr": 2202,
      "смерти": 2203,
      "слово": 2204,
      "жит": 2205,
      "краси": 2206,
      "тора": 2207,
      "прошло": 2208,
      "выми": 2209,
      "шке": 2210,
      "тю": 2211,
      "ствия": 2212,
      "счит": 2213,
      "земле": 2214,
      "имя": 2215,
      "напря": 2216,
      "поки": 2217,
      "силы": 2218,
      "города": 2219,
      "своем": 2220,
      "иногда": 2221,
      "мерт": 2222,
      "ющим": 2223,
      "трудно": 2224,
      "точ": 2225,
      "au": 2226,
      "кали": 2227,
      "вроде": 2228,
      "ново": 2229,
      "тела": 2230,
      "аб": 2231,
      "впрочем": 2232,
      "каким": 2233,
      "лоша": 2234,
      "ад": 2235,
      "der": 2236,
      "серьез": 2237,
      "had": 2238,
      "всей": 2239,
      "памя": 2240,
      "сок": 2241,
      "профе": 2242,
      "строй": 2243,
      "преду": 2244,
      "взял": 2245,
      "землю": 2246,
      "трен": 2247,
      "заклю": 2248,
      "ступле": 2249,
      "роб": 2250,
      "которым": 2251,
      "нился": 2252,
      "дого": 2253,
      "жел": 2254,
      "знала": 2255,
      "сильно": 2256,
      "двор": 2257,
      "исти": 2258,
      "with": 2259,
      "пить": 2260,
      "фан": 2261,
      "бель": 2262,
      "мас": 2263,
      "мест": 2264,
      "менее": 2265,
      "моз": 2266,
      "лице": 2267,
      "поги": 2268,
      "шеп": 2269,
      "сму": 2270,
      "зато": 2271,
      "полага": 2272,
      "опасно": 2273,
      "ge": 2274,
      "часов": 2275,
      "дки": 2276,
      "хоти": 2277,
      "въ": 2278,
      "попро": 2279,
      "руками": 2280,
      "найти": 2281,
      "казы": 2282,
      "значи": 2283,
      "плане": 2284,
      "страш": 2285,
      "дево": 2286,
      "моск": 2287,
      "мысль": 2288,
      "мяг": 2289,
      "путь": 2290,
      "туа": 2291,
      "двига": 2292,
      "часа": 2293,
      "сообщи": 2294,
      "товари": 2295,
      "ющее": 2296,
      "вода": 2297,
      "стом": 2298,
      "мисси": 2299,
      "поднял": 2300,
      "гости": 2301,
      "ation": 2302,
      "такая": 2303,
      "компа": 2304,
      "дон": 2305,
      "лер": 2306,
      "смотрела": 2307,
      "думала": 2308,
      "корот": 2309,
      "com": 2310,
      "полови": 2311,
      "рию": 2312,
      "держ": 2313,
      "числе": 2314,
      "самой": 2315,
      "понять": 2316,
      "моего": 2317,
      "опера": 2318,
      "стати": 2319,
      "зам": 2320,
      "иначе": 2321,
      "дож": 2322,
      "мистер": 2323,
      "печат": 2324,
      "we": 2325,
      "вышел": 2326,
      "by": 2327,
      "валь": 2328,
      "ходил": 2329,
      "полити": 2330,
      "рий": 2331,
      "народ": 2332,
      "бал": 2333,
      "надцать": 2334,
      "ходить": 2335,
      "своими": 2336,
      "ер": 2337,
      "коли": 2338,
      "охот": 2339,
      "мило": 2340,
      "na": 2341,
      "това": 2342,
      "ib": 2343,
      "комнату": 2344,
      "продолжал": 2345,
      "вшая": 2346,
      "оказался": 2347,
      "жена": 2348,
      "кс": 2349,
      "противо": 2350,
      "сначала": 2351,
      "воспо": 2352,
      "дает": 2353,
      "тей": 2354,
      "тар": 2355,
      "капитан": 2356,
      "хочешь": 2357,
      "сматри": 2358,
      "собы": 2359,
      "присут": 2360,
      "лё": 2361,
      "усло": 2362,
      "тельной": 2363,
      "выз": 2364,
      "безо": 2365,
      "шед": 2366,
      "дешь": 2367,
      "нож": 2368,
      "холод": 2369,
      "улыбнулся": 2370,
      "вили": 2371,
      "ci": 2372,
      "направле": 2373,
      "самый": 2374,
      "десять": 2375,
      "гры": 2376,
      "важ": 2377,
      "визи": 2378,
      "бол": 2379,
      "мат": 2380,
      "you": 2381,
      "другу": 2382,
      "писал": 2383,
      "ление": 2384,
      "прости": 2385,
      "должна": 2386,
      "дю": 2387,
      "ладо": 2388,
      "испол": 2389,
      "пуска": 2390,
      "дения": 2391,
      "квар": 2392,
      "рам": 2393,
      "окон": 2394,
      "еха": 2395,
      "лых": 2396,
      "команди": 2397,
      "зри": 2398,
      "нять": 2399,
      "ске": 2400,
      "душе": 2401,
      "рах": 2402,
      "рука": 2403,
      "деля": 2404,
      "метров": 2405,
      "поза": 2406,
      "необходимо": 2407,
      "нику": 2408,
      "спраши": 2409,
      "ni": 2410,
      "go": 2411,
      "ульта": 2412,
      "вшийся": 2413,
      "десят": 2414,
      "сохра": 2415,
      "солнце": 2416,
      "результа": 2417,
      "будем": 2418,
      "выр": 2419,
      "мона": 2420,
      "проце": 2421,
      "скри": 2422,
      "нашей": 2423,
      "сим": 2424,
      "фер": 2425,
      "поля": 2426,
      "знаете": 2427,
      "спаси": 2428,
      "пі": 2429,
      "пару": 2430,
      "ций": 2431,
      "пуга": 2432,
      "ления": 2433,
      "нувшись": 2434,
      "мага": 2435,
      "стари": 2436,
      "ct": 2437,
      "осве": 2438,
      "домой": 2439,
      "нин": 2440,
      "нется": 2441,
      "ехал": 2442,
      "нимал": 2443,
      "возник": 2444,
      "мощ": 2445,
      "соеди": 2446,
      "лон": 2447,
      "волосы": 2448,
      "щал": 2449,
      "чная": 2450,
      "шее": 2451,
      "жении": 2452,
      "грам": 2453,
      "дина": 2454,
      "случилось": 2455,
      "дан": 2456,
      "видели": 2457,
      "пери": 2458,
      "смерть": 2459,
      "сад": 2460,
      "жале": 2461,
      "пари": 2462,
      "изме": 2463,
      "щим": 2464,
      "шил": 2465,
      "джон": 2466,
      "скажи": 2467,
      "поряд": 2468,
      "ul": 2469,
      "жем": 2470,
      "запи": 2471,
      "задум": 2472,
      "нице": 2473,
      "никаких": 2474,
      "кин": 2475,
      "двадцать": 2476,
      "говорила": 2477,
      "жив": 2478,
      "осторожно": 2479,
      "энер": 2480,
      "волю": 2481,
      "площа": 2482,
      "ответила": 2483,
      "ii": 2484,
      "ива": 2485,
      "меньше": 2486,
      "вскоре": 2487,
      "нку": 2488,
      "ём": 2489,
      "попроси": 2490,
      "лит": 2491,
      "информа": 2492,
      "расте": 2493,
      "man": 2494,
      "фигу": 2495,
      "государ": 2496,
      "нуться": 2497,
      "надле": 2498,
      "явно": 2499,
      "ровал": 2500,
      "торо": 2501,
      "жением": 2502,
      "дили": 2503,
      "взглядом": 2504,
      "весьма": 2505,
      "дене": 2506,
      "дови": 2507,
      "her": 2508,
      "чие": 2509,
      "глазах": 2510,
      "стреми": 2511,
      "цели": 2512,
      "неприя": 2513,
      "голу": 2514,
      "секре": 2515,
      "all": 2516,
      "тую": 2517,
      "чает": 2518,
      "внезапно": 2519,
      "органи": 2520,
      "рон": 2521,
      "воль": 2522,
      "ям": 2523,
      "пил": 2524,
      "круп": 2525,
      "тельным": 2526,
      "переда": 2527,
      "хочет": 2528,
      "отца": 2529,
      "успо": 2530,
      "уста": 2531,
      "приме": 2532,
      "минуту": 2533,
      "маг": 2534,
      "занима": 2535,
      "никак": 2536,
      "верить": 2537,
      "гах": 2538,
      "wer": 2539,
      "важно": 2540,
      "несмотря": 2541,
      "бросил": 2542,
      "кер": 2543,
      "чувству": 2544,
      "покры": 2545,
      "представи": 2546,
      "няя": 2547,
      "пру": 2548,
      "my": 2549,
      "своему": 2550,
      "not": 2551,
      "годы": 2552,
      "рд": 2553,
      "рень": 2554,
      "pe": 2555,
      "мили": 2556,
      "нила": 2557,
      "пан": 2558,
      "жной": 2559,
      "смех": 2560,
      "одним": 2561,
      "резко": 2562,
      "изи": 2563,
      "ав": 2564,
      "нение": 2565,
      "сидел": 2566,
      "понимаю": 2567,
      "чек": 2568,
      "внимание": 2569,
      "милли": 2570,
      "da": 2571,
      "требо": 2572,
      "последний": 2573,
      "раздо": 2574,
      "глядя": 2575,
      "жай": 2576,
      "кварти": 2577,
      "тали": 2578,
      "наших": 2579,
      "принима": 2580,
      "служ": 2581,
      "уничто": 2582,
      "успел": 2583,
      "брат": 2584,
      "ах": 2585,
      "соба": 2586,
      "шин": 2587,
      "держать": 2588,
      "рых": 2589,
      "чик": 2590,
      "обер": 2591,
      "говари": 2592,
      "ждал": 2593,
      "море": 2594,
      "беше": 2595,
      "офице": 2596,
      "крова": 2597,
      "ходили": 2598,
      "нут": 2599,
      "знакомы": 2600,
      "ницу": 2601,
      "вор": 2602,
      "поверх": 2603,
      "доктор": 2604,
      "посколь": 2605,
      "мана": 2606,
      "бормо": 2607,
      "доль": 2608,
      "неожиданно": 2609,
      "знали": 2610,
      "сою": 2611,
      "дне": 2612,
      "изви": 2613,
      "вместо": 2614,
      "боро": 2615,
      "очере": 2616,
      "нюю": 2617,
      "шить": 2618,
      "верно": 2619,
      "вей": 2620,
      "пля": 2621,
      "закон": 2622,
      "исклю": 2623,
      "тии": 2624,
      "войны": 2625,
      "сце": 2626,
      "подошел": 2627,
      "треть": 2628,
      "харак": 2629,
      "трех": 2630,
      "ist": 2631,
      "телем": 2632,
      "тельные": 2633,
      "ёл": 2634,
      "шься": 2635,
      "бук": 2636,
      "мец": 2637,
      "скор": 2638,
      "привет": 2639,
      "ствовать": 2640,
      "отчая": 2641,
      "выпол": 2642,
      "сия": 2643,
      "out": 2644,
      "идти": 2645,
      "работы": 2646,
      "нк": 2647,
      "утра": 2648,
      "гали": 2649,
      "гне": 2650,
      "дав": 2651,
      "мире": 2652,
      "многие": 2653,
      "следует": 2654,
      "рыв": 2655,
      "приз": 2656,
      "удо": 2657,
      "разуме": 2658,
      "ох": 2659,
      "усили": 2660,
      "света": 2661,
      "пяти": 2662,
      "назна": 2663,
      "слов": 2664,
      "миро": 2665,
      "ht": 2666,
      "чера": 2667,
      "ближе": 2668,
      "ката": 2669,
      "практи": 2670,
      "чества": 2671,
      "пошел": 2672,
      "кем": 2673,
      "использо": 2674,
      "ссе": 2675,
      "тысяч": 2676,
      "работу": 2677,
      "пси": 2678,
      "бь": 2679,
      "американ": 2680,
      "добра": 2681,
      "временно": 2682,
      "определе": 2683,
      "несе": 2684,
      "напомина": 2685,
      "сэр": 2686,
      "нести": 2687,
      "вшихся": 2688,
      "брал": 2689,
      "мэ": 2690,
      "комнате": 2691,
      "огля": 2692,
      "иди": 2693,
      "могло": 2694,
      "несколь": 2695,
      "ther": 2696,
      "лад": 2697,
      "рого": 2698,
      "можешь": 2699,
      "поскольку": 2700,
      "метал": 2701,
      "вижу": 2702,
      "гала": 2703,
      "счаст": 2704,
      "небо": 2705,
      "разговор": 2706,
      "укра": 2707,
      "воздух": 2708,
      "пусты": 2709,
      "непод": 2710,
      "женщины": 2711,
      "пришел": 2712,
      "голове": 2713,
      "бку": 2714,
      "тный": 2715,
      "двое": 2716,
      "sa": 2717,
      "бок": 2718,
      "вклю": 2719,
      "гая": 2720,
      "яро": 2721,
      "приве": 2722,
      "плечами": 2723,
      "сторон": 2724,
      "дога": 2725,
      "скому": 2726,
      "шек": 2727,
      "ждение": 2728,
      "искус": 2729,
      "лил": 2730,
      "хле": 2731,
      "господин": 2732,
      "принадле": 2733,
      "относи": 2734,
      "отра": 2735,
      "титься": 2736,
      "стены": 2737,
      "изу": 2738,
      "рук": 2739,
      "пах": 2740,
      "ниях": 2741,
      "ужели": 2742,
      "кара": 2743,
      "ma": 2744,
      "je": 2745,
      "пау": 2746,
      "пригла": 2747,
      "музы": 2748,
      "услови": 2749,
      "лем": 2750,
      "стен": 2751,
      "земля": 2752,
      "неужели": 2753,
      "десяти": 2754,
      "теше": 2755,
      "вовсе": 2756,
      "мок": 2757,
      "молодой": 2758,
      "андре": 2759,
      "шко": 2760,
      "нуло": 2761,
      "ай": 2762,
      "зали": 2763,
      "ребя": 2764,
      "que": 2765,
      "свете": 2766,
      "одо": 2767,
      "вила": 2768,
      "неве": 2769,
      "деревь": 2770,
      "интересно": 2771,
      "свяще": 2772,
      "говорили": 2773,
      "доме": 2774,
      "тку": 2775,
      "ta": 2776,
      "ould": 2777,
      "джо": 2778,
      "произошло": 2779,
      "гори": 2780,
      "нному": 2781,
      "труд": 2782,
      "сл": 2783,
      "разви": 2784,
      "бора": 2785,
      "уверен": 2786,
      "лая": 2787,
      "цией": 2788,
      "внутри": 2789,
      "рачи": 2790,
      "ситуа": 2791,
      "жо": 2792,
      "nie": 2793,
      "намере": 2794,
      "наро": 2795,
      "ному": 2796,
      "трево": 2797,
      "тать": 2798,
      "некоторые": 2799,
      "gan": 2800,
      "вайте": 2801,
      "обратно": 2802,
      "кровь": 2803,
      "голова": 2804,
      "разо": 2805,
      "ex": 2806,
      "кана": 2807,
      "глуби": 2808,
      "оказалось": 2809,
      "невозможно": 2810,
      "вшую": 2811,
      "сказа": 2812,
      "какую": 2813,
      "дят": 2814,
      "дея": 2815,
      "вку": 2816,
      "умер": 2817,
      "ra": 2818,
      "кле": 2819,
      "мого": 2820,
      "простран": 2821,
      "понятно": 2822,
      "гать": 2823,
      "нец": 2824,
      "мою": 2825,
      "нили": 2826,
      "напа": 2827,
      "безопа": 2828,
      "шесть": 2829,
      "полков": 2830,
      "энерги": 2831,
      "захва": 2832,
      "стои": 2833,
      "жены": 2834,
      "res": 2835,
      "охра": 2836,
      "кстати": 2837,
      "вшиеся": 2838,
      "осталось": 2839,
      "свиде": 2840,
      "нья": 2841,
      "ните": 2842,
      "лым": 2843,
      "оружие": 2844,
      "утром": 2845,
      "здоро": 2846,
      "нашего": 2847,
      "хар": 2848,
      "спасибо": 2849,
      "лам": 2850,
      "есте": 2851,
      "север": 2852,
      "писто": 2853,
      "явил": 2854,
      "конца": 2855,
      "per": 2856,
      "жей": 2857,
      "друзья": 2858,
      "одино": 2859,
      "стю": 2860,
      "заб": 2861,
      "ant": 2862,
      "подозре": 2863,
      "станет": 2864,
      "стреля": 2865,
      "вечер": 2866,
      "возра": 2867,
      "вчера": 2868,
      "ночи": 2869,
      "ехать": 2870,
      "сор": 2871,
      "внутрен": 2872,
      "угро": 2873,
      "циона": 2874,
      "вон": 2875,
      "давай": 2876,
      "рин": 2877,
      "секун": 2878,
      "другом": 2879,
      "лки": 2880,
      "настолько": 2881,
      "остальные": 2882,
      "отсюда": 2883,
      "проводи": 2884,
      "связа": 2885,
      "подтвер": 2886,
      "машины": 2887,
      "par": 2888,
      "ступил": 2889,
      "положение": 2890,
      "ko": 2891,
      "души": 2892,
      "работать": 2893,
      "тяжело": 2894,
      "бит": 2895,
      "самым": 2896,
      "няка": 2897,
      "образо": 2898,
      "вверх": 2899,
      "мгновение": 2900,
      "мента": 2901,
      "тыми": 2902,
      "ваш": 2903,
      "новый": 2904,
      "огонь": 2905,
      "девя": 2906,
      "рые": 2907,
      "например": 2908,
      "повернулся": 2909,
      "возле": 2910,
      "внимания": 2911,
      "und": 2912,
      "держал": 2913,
      "ночью": 2914,
      "впечат": 2915,
      "идет": 2916,
      "моих": 2917,
      "цем": 2918,
      "удар": 2919,
      "имеет": 2920,
      "тило": 2921,
      "ужас": 2922,
      "тое": 2923,
      "речь": 2924,
      "плю": 2925,
      "шан": 2926,
      "сум": 2927,
      "чную": 2928,
      "вои": 2929,
      "цвет": 2930,
      "тной": 2931,
      "um": 2932,
      "мож": 2933,
      "бело": 2934,
      "никола": 2935,
      "черт": 2936,
      "наи": 2937,
      "чле": 2938,
      "ёт": 2939,
      "вут": 2940,
      "силу": 2941,
      "бить": 2942,
      "ствен": 2943,
      "ниями": 2944,
      "власти": 2945,
      "освобо": 2946,
      "тились": 2947,
      "концов": 2948,
      "гле": 2949,
      "возможность": 2950,
      "однажды": 2951,
      "вшее": 2952,
      "рад": 2953,
      "несла": 2954,
      "фло": 2955,
      "ho": 2956,
      "сков": 2957,
      "услы": 2958,
      "ваши": 2959,
      "помочь": 2960,
      "фы": 2961,
      "мі": 2962,
      "ликнул": 2963,
      "впервые": 2964,
      "полностью": 2965,
      "преда": 2966,
      "поднима": 2967,
      "пози": 2968,
      "гораздо": 2969,
      "тельного": 2970,
      "прос": 2971,
      "непо": 2972,
      "тилась": 2973,
      "роз": 2974,
      "pro": 2975,
      "поднялся": 2976,
      "эт": 2977,
      "нье": 2978,
      "кнула": 2979,
      "спиной": 2980,
      "почувствовал": 2981,
      "хотела": 2982,
      "слег": 2983,
      "дая": 2984,
      "ап": 2985,
      "каса": 2986,
      "дный": 2987,
      "никого": 2988,
      "другого": 2989,
      "нар": 2990,
      "дев": 2991,
      "забы": 2992,
      "геро": 2993,
      "счастли": 2994,
      "пет": 2995,
      "нан": 2996,
      "слегка": 2997,
      "зон": 2998,
      "ваются": 2999,
      "od": 3000,
      "элек": 3001,
      "корабль": 3002,
      "удоволь": 3003,
      "our": 3004,
      "король": 3005,
      "фото": 3006,
      "разме": 3007,
      "остановился": 3008,
      "жан": 3009,
      "голосом": 3010,
      "ибо": 3011,
      "встал": 3012,
      "евре": 3013,
      "опу": 3014,
      "детей": 3015,
      "насе": 3016,
      "аре": 3017,
      "ave": 3018,
      "стр": 3019,
      "посла": 3020,
      "физи": 3021,
      "ног": 3022,
      "жим": 3023,
      "дороги": 3024,
      "переди": 3025,
      "цель": 3026,
      "ране": 3027,
      "груди": 3028,
      "одном": 3029,
      "тек": 3030,
      "тельное": 3031,
      "оле": 3032,
      "новые": 3033,
      "щем": 3034,
      "ква": 3035,
      "цело": 3036,
      "избе": 3037,
      "тин": 3038,
      "пот": 3039,
      "пору": 3040,
      "странно": 3041,
      "выстре": 3042,
      "чке": 3043,
      "головы": 3044,
      "скал": 3045,
      "твой": 3046,
      "вспы": 3047,
      "изо": 3048,
      "четвер": 3049,
      "лаге": 3050,
      "кей": 3051,
      "узнать": 3052,
      "громко": 3053,
      "ходу": 3054,
      "древ": 3055,
      "парень": 3056,
      "вес": 3057,
      "никакого": 3058,
      "францу": 3059,
      "литера": 3060,
      "можете": 3061,
      "ува": 3062,
      "пов": 3063,
      "one": 3064,
      "тих": 3065,
      "возму": 3066,
      "зале": 3067,
      "отме": 3068,
      "поспе": 3069,
      "путеше": 3070,
      "жая": 3071,
      "говорят": 3072,
      "последние": 3073,
      "солдат": 3074,
      "ими": 3075,
      "всему": 3076,
      "правильно": 3077,
      "жар": 3078,
      "вок": 3079,
      "емся": 3080,
      "ешься": 3081,
      "пира": 3082,
      "клу": 3083,
      "тельных": 3084,
      "основа": 3085,
      "прокля": 3086,
      "внимательно": 3087,
      "шах": 3088,
      "смог": 3089,
      "жерт": 3090,
      "машина": 3091,
      "вещи": 3092,
      "моби": 3093,
      "сих": 3094,
      "доку": 3095,
      "тиши": 3096,
      "выяс": 3097,
      "вечером": 3098,
      "япо": 3099,
      "ill": 3100,
      "мужчина": 3101,
      "гам": 3102,
      "взять": 3103,
      "таком": 3104,
      "тные": 3105,
      "шаг": 3106,
      "ус": 3107,
      "комнаты": 3108,
      "ек": 3109,
      "стояли": 3110,
      "убеди": 3111,
      "бог": 3112,
      "чное": 3113,
      "дами": 3114,
      "санд": 3115,
      "связи": 3116,
      "наверняка": 3117,
      "ктора": 3118,
      "утвер": 3119,
      "ора": 3120,
      "дети": 3121,
      "тана": 3122,
      "какого": 3123,
      "зная": 3124,
      "клады": 3125,
      "насколько": 3126,
      "непре": 3127,
      "пья": 3128,
      "другое": 3129,
      "оне": 3130,
      "болез": 3131,
      "закончи": 3132,
      "лла": 3133,
      "рец": 3134,
      "никами": 3135,
      "оконча": 3136,
      "показы": 3137,
      "открыл": 3138,
      "тран": 3139,
      "ческая": 3140,
      "дна": 3141,
      "вздохнул": 3142,
      "дии": 3143,
      "рился": 3144,
      "ів": 3145,
      "жесто": 3146,
      "стояла": 3147,
      "нашел": 3148,
      "меха": 3149,
      "замер": 3150,
      "вшим": 3151,
      "интерес": 3152,
      "крайней": 3153,
      "привле": 3154,
      "спосо": 3155,
      "моему": 3156,
      "зов": 3157,
      "пытался": 3158,
      "написа": 3159,
      "прекрасно": 3160,
      "hen": 3161,
      "журна": 3162,
      "вызы": 3163,
      "ber": 3164,
      "самых": 3165,
      "ia": 3166,
      "сын": 3167,
      "куль": 3168,
      "помощь": 3169,
      "зер": 3170,
      "главное": 3171,
      "граф": 3172,
      "ворот": 3173,
      "як": 3174,
      "горь": 3175,
      "пото": 3176,
      "является": 3177,
      "лар": 3178,
      "менты": 3179,
      "скажу": 3180,
      "зли": 3181,
      "пови": 3182,
      "доми": 3183,
      "хотите": 3184,
      "кило": 3185,
      "щаться": 3186,
      "сал": 3187,
      "дите": 3188,
      "моря": 3189,
      "читы": 3190,
      "согласился": 3191,
      "fe": 3192,
      "твор": 3193,
      "вернуться": 3194,
      "нормаль": 3195,
      "нял": 3196,
      "мастер": 3197,
      "собственно": 3198,
      "измени": 3199,
      "дому": 3200,
      "трудом": 3201,
      "прикры": 3202,
      "получил": 3203,
      "ческим": 3204,
      "первым": 3205,
      "пыты": 3206,
      "нечто": 3207,
      "ющая": 3208,
      "шар": 3209,
      "показалось": 3210,
      "кнове": 3211,
      "решение": 3212,
      "прежнему": 3213,
      "тео": 3214,
      "нца": 3215,
      "коридо": 3216,
      "вела": 3217,
      "обви": 3218,
      "кула": 3219,
      "ари": 3220,
      "оце": 3221,
      "руке": 3222,
      "вале": 3223,
      "від": 3224,
      "дное": 3225,
      "разру": 3226,
      "ветер": 3227,
      "дорогу": 3228,
      "молчал": 3229,
      "йся": 3230,
      "можем": 3231,
      "рым": 3232,
      "импера": 3233,
      "фри": 3234,
      "немедленно": 3235,
      "чувствовала": 3236,
      "одновременно": 3237,
      "машину": 3238,
      "ехали": 3239,
      "узнал": 3240,
      "хозяй": 3241,
      "знаком": 3242,
      "экра": 3243,
      "кух": 3244,
      "лицом": 3245,
      "мым": 3246,
      "демо": 3247,
      "симо": 3248,
      "зор": 3249,
      "безопасно": 3250,
      "имел": 3251,
      "разумеется": 3252,
      "дной": 3253,
      "усмех": 3254,
      "сек": 3255,
      "опас": 3256,
      "рила": 3257,
      "спор": 3258,
      "дороге": 3259,
      "мари": 3260,
      "альной": 3261,
      "соответ": 3262,
      "гражда": 3263,
      "иль": 3264,
      "пошли": 3265,
      "чок": 3266,
      "ческое": 3267,
      "борь": 3268,
      "терри": 3269,
      "ър": 3270,
      "воскликнул": 3271,
      "увидеть": 3272,
      "людя": 3273,
      "ess": 3274,
      "стая": 3275,
      "шля": 3276,
      "изобра": 3277,
      "очевидно": 3278,
      "уро": 3279,
      "чий": 3280,
      "такую": 3281,
      "хан": 3282,
      "говорю": 3283,
      "губы": 3284,
      "фона": 3285,
      "джей": 3286,
      "контро": 3287,
      "чается": 3288,
      "обстоя": 3289,
      "тье": 3290,
      "большин": 3291,
      "лейте": 3292,
      "другим": 3293,
      "думы": 3294,
      "стола": 3295,
      "оказы": 3296,
      "ten": 3297,
      "прези": 3298,
      "спусти": 3299,
      "выбра": 3300,
      "194": 3301,
      "полицей": 3302,
      "сона": 3303,
      "мую": 3304,
      "пробормо": 3305,
      "отда": 3306,
      "любой": 3307,
      "бами": 3308,
      "надея": 3309,
      "джу": 3310,
      "дка": 3311,
      "любовь": 3312,
      "погиб": 3313,
      "шкой": 3314,
      "нескольких": 3315,
      "ствии": 3316,
      "человеком": 3317,
      "миссис": 3318,
      "крикнул": 3319,
      "10": 3320,
      "люб": 3321,
      "англий": 3322,
      "располо": 3323,
      "служи": 3324,
      "нит": 3325,
      "седа": 3326,
      "жь": 3327,
      "предо": 3328,
      "but": 3329,
      "gr": 3330,
      "происходит": 3331,
      "льной": 3332,
      "20": 3333,
      "настрое": 3334,
      "лиш": 3335,
      "пожалуйста": 3336,
      "прекра": 3337,
      "подру": 3338,
      "самые": 3339,
      "were": 3340,
      "потя": 3341,
      "истории": 3342,
      "хуже": 3343,
      "сах": 3344,
      "армии": 3345,
      "пей": 3346,
      "забо": 3347,
      "каких": 3348,
      "пел": 3349,
      "ата": 3350,
      "впереди": 3351,
      "туры": 3352,
      "are": 3353,
      "прошеп": 3354,
      "поез": 3355,
      "чисто": 3356,
      "жный": 3357,
      "озна": 3358,
      "генерал": 3359,
      "роль": 3360,
      "позволя": 3361,
      "ish": 3362,
      "поняла": 3363,
      "зом": 3364,
      "дила": 3365,
      "ръ": 3366,
      "мане": 3367,
      "ka": 3368,
      "кос": 3369,
      "прошу": 3370,
      "ходят": 3371,
      "зай": 3372,
      "нужде": 3373,
      "участ": 3374,
      "подъ": 3375,
      "переме": 3376,
      "лете": 3377,
      "ума": 3378,
      "несли": 3379,
      "герцо": 3380,
      "ve": 3381,
      "суда": 3382,
      "остался": 3383,
      "живо": 3384,
      "ребен": 3385,
      "кости": 3386,
      "лежа": 3387,
      "принять": 3388,
      "высоко": 3389,
      "ныне": 3390,
      "op": 3391,
      "коми": 3392,
      "дым": 3393,
      "денег": 3394,
      "пье": 3395,
      "ната": 3396,
      "рва": 3397,
      "чувства": 3398,
      "чено": 3399,
      "вряд": 3400,
      "услышал": 3401,
      "мальчик": 3402,
      "требу": 3403,
      "ці": 3404,
      "надеюсь": 3405,
      "первой": 3406,
      "ke": 3407,
      "дия": 3408,
      "лую": 3409,
      "лить": 3410,
      "чере": 3411,
      "множе": 3412,
      "гался": 3413,
      "письмо": 3414,
      "готови": 3415,
      "рассу": 3416,
      "скольз": 3417,
      "постоянно": 3418,
      "начали": 3419,
      "os": 3420,
      "неболь": 3421,
      "откро": 3422,
      "дение": 3423,
      "гон": 3424,
      "рэ": 3425,
      "старик": 3426,
      "оты": 3427,
      "частью": 3428,
      "протянул": 3429,
      "покло": 3430,
      "прош": 3431,
      "пытаясь": 3432,
      "тура": 3433,
      "оке": 3434,
      "вольно": 3435,
      "евро": 3436,
      "ющую": 3437,
      "быстре": 3438,
      "помню": 3439,
      "ошиб": 3440,
      "раздра": 3441,
      "находится": 3442,
      "боли": 3443,
      "немец": 3444,
      "выда": 3445,
      "разговари": 3446,
      "легче": 3447,
      "первого": 3448,
      "спря": 3449,
      "тное": 3450,
      "хмы": 3451,
      "план": 3452,
      "пустил": 3453,
      "имени": 3454,
      "револю": 3455,
      "сосед": 3456,
      "новой": 3457,
      "if": 3458,
      "офици": 3459,
      "виль": 3460,
      "тных": 3461,
      "необы": 3462,
      "безу": 3463,
      "оборо": 3464,
      "королев": 3465,
      "течение": 3466,
      "права": 3467,
      "ga": 3468,
      "расстоя": 3469,
      "мый": 3470,
      "подчи": 3471,
      "ствовал": 3472,
      "номер": 3473,
      "городе": 3474,
      "кора": 3475,
      "миг": 3476,
      "желез": 3477,
      "экспе": 3478,
      "будешь": 3479,
      "воору": 3480,
      "спустя": 3481,
      "ous": 3482,
      "альный": 3483,
      "заве": 3484,
      "ty": 3485,
      "отвер": 3486,
      "подроб": 3487,
      "центра": 3488,
      "vi": 3489,
      "тельности": 3490,
      "15": 3491,
      "пояс": 3492,
      "вном": 3493,
      "приходилось": 3494,
      "любопыт": 3495,
      "оказалась": 3496,
      "нали": 3497,
      "цом": 3498,
      "мые": 3499,
      "крыль": 3500,
      "this": 3501,
      "гуля": 3502,
      "первых": 3503,
      "буты": 3504,
      "старый": 3505,
      "корабля": 3506,
      "боже": 3507,
      "редко": 3508,
      "нового": 3509,
      "дри": 3510,
      "казаться": 3511,
      "порядке": 3512,
      "стями": 3513,
      "вшегося": 3514,
      "влия": 3515,
      "дим": 3516,
      "пеще": 3517,
      "образи": 3518,
      "сро": 3519,
      "довал": 3520,
      "женный": 3521,
      "праз": 3522,
      "говор": 3523,
      "отказ": 3524,
      "состоянии": 3525,
      "вдоль": 3526,
      "россии": 3527,
      "берт": 3528,
      "стые": 3529,
      "14": 3530,
      "оставалось": 3531,
      "скими": 3532,
      "появился": 3533,
      "хай": 3534,
      "дай": 3535,
      "ческую": 3536,
      "пью": 3537,
      "честь": 3538,
      "скочил": 3539,
      "удоб": 3540,
      "распоря": 3541,
      "ящи": 3542,
      "жает": 3543,
      "спать": 3544,
      "льный": 3545,
      "вслед": 3546,
      "которому": 3547,
      "фанта": 3548,
      "17": 3549,
      "положил": 3550,
      "щать": 3551,
      "кура": 3552,
      "наша": 3553,
      "жку": 3554,
      "нике": 3555,
      "испыты": 3556,
      "встречу": 3557,
      "oun": 3558,
      "шен": 3559,
      "цар": 3560,
      "кала": 3561,
      "раскры": 3562,
      "филь": 3563,
      "вяз": 3564,
      "постепе": 3565,
      "верил": 3566,
      "внеш": 3567,
      "ющими": 3568,
      "сопрово": 3569,
      "юно": 3570,
      "рос": 3571,
      "увиде": 3572,
      "глубоко": 3573,
      "чел": 3574,
      "профессо": 3575,
      "цвета": 3576,
      "управле": 3577,
      "пь": 3578,
      "слав": 3579,
      "she": 3580,
      "кричал": 3581,
      "пуль": 3582,
      "отсут": 3583,
      "жки": 3584,
      "нями": 3585,
      "новле": 3586,
      "пита": 3587,
      "слуш": 3588,
      "тным": 3589,
      "бывает": 3590,
      "думаешь": 3591,
      "зации": 3592,
      "окна": 3593,
      "демон": 3594,
      "выс": 3595,
      "бло": 3596,
      "ходило": 3597,
      "pl": 3598,
      "ходила": 3599,
      "точки": 3600,
      "тепло": 3601,
      "воздухе": 3602,
      "всеми": 3603,
      "баш": 3604,
      "печа": 3605,
      "короля": 3606,
      "гряз": 3607,
      "ори": 3608,
      "шту": 3609,
      "лка": 3610,
      "стене": 3611,
      "вопросы": 3612,
      "кабине": 3613,
      "следующий": 3614,
      "запах": 3615,
      "сообще": 3616,
      "бара": 3617,
      "очеред": 3618,
      "гну": 3619,
      "тельная": 3620,
      "жные": 3621,
      "зака": 3622,
      "застави": 3623,
      "доби": 3624,
      "тона": 3625,
      "from": 3626,
      "костю": 3627,
      "глава": 3628,
      "столе": 3629,
      "погру": 3630,
      "террито": 3631,
      "вина": 3632,
      "некоторое": 3633,
      "чался": 3634,
      "сожале": 3635,
      "сигна": 3636,
      "зет": 3637,
      "вошел": 3638,
      "пен": 3639,
      "газе": 3640,
      "мама": 3641,
      "вытащи": 3642,
      "дур": 3643,
      "фро": 3644,
      "хал": 3645,
      "оказались": 3646,
      "замеча": 3647,
      "заметно": 3648,
      "поку": 3649,
      "гей": 3650,
      "спут": 3651,
      "гель": 3652,
      "смогу": 3653,
      "плечо": 3654,
      "били": 3655,
      "меди": 3656,
      "цам": 3657,
      "страх": 3658,
      "раздался": 3659,
      "понимал": 3660,
      "war": 3661,
      "ja": 3662,
      "ждали": 3663,
      "поздно": 3664,
      "бежал": 3665,
      "метра": 3666,
      "добавил": 3667,
      "предупре": 3668,
      "рем": 3669,
      "дцати": 3670,
      "александ": 3671,
      "нке": 3672,
      "разум": 3673,
      "устра": 3674,
      "возмож": 3675,
      "возможности": 3676,
      "уло": 3677,
      "він": 3678,
      "потря": 3679,
      "нравится": 3680,
      "ближай": 3681,
      "зара": 3682,
      "чих": 3683,
      "принце": 3684,
      "лку": 3685,
      "ср": 3686,
      "дку": 3687,
      "ствием": 3688,
      "позже": 3689,
      "эли": 3690,
      "завер": 3691,
      "постепенно": 3692,
      "получить": 3693,
      "очередь": 3694,
      "улице": 3695,
      "инсти": 3696,
      "дьми": 3697,
      "лье": 3698,
      "солю": 3699,
      "смотрели": 3700,
      "красо": 3701,
      "вав": 3702,
      "сфе": 3703,
      "хватит": 3704,
      "посмотри": 3705,
      "por": 3706,
      "попытался": 3707,
      "сможет": 3708,
      "душ": 3709,
      "судя": 3710,
      "накло": 3711,
      "искать": 3712,
      "смеялся": 3713,
      "устави": 3714,
      "тельность": 3715,
      "видишь": 3716,
      "оттуда": 3717,
      "ственной": 3718,
      "огне": 3719,
      "обсу": 3720,
      "рут": 3721,
      "za": 3722,
      "леди": 3723,
      "тало": 3724,
      "абсолю": 3725,
      "помощью": 3726,
      "несчаст": 3727,
      "яко": 3728,
      "предложил": 3729,
      "улыбнулась": 3730,
      "чим": 3731,
      "озе": 3732,
      "столи": 3733,
      "пое": 3734,
      "годи": 3735,
      "восемь": 3736,
      "встреча": 3737,
      "малы": 3738,
      "женно": 3739,
      "досто": 3740,
      "грудь": 3741,
      "ёр": 3742,
      "ворачи": 3743,
      "пустить": 3744,
      "взглянул": 3745,
      "помощи": 3746,
      "12": 3747,
      "пале": 3748,
      "маленький": 3749,
      "ваша": 3750,
      "шум": 3751,
      "заку": 3752,
      "ju": 3753,
      "расы": 3754,
      "ию": 3755,
      "печ": 3756,
      "навли": 3757,
      "ун": 3758,
      "лейтена": 3759,
      "тени": 3760,
      "покачал": 3761,
      "рассе": 3762,
      "ki": 3763,
      "посмотрела": 3764,
      "alin": 3765,
      "have": 3766,
      "lar": 3767,
      "воспомина": 3768,
      "силой": 3769,
      "станов": 3770,
      "работал": 3771,
      "вспомнил": 3772,
      "француз": 3773,
      "увели": 3774,
      "вшейся": 3775,
      "зла": 3776,
      "минуты": 3777,
      "веду": 3778,
      "усе": 3779,
      "драко": 3780,
      "окружа": 3781,
      "убить": 3782,
      "доров": 3783,
      "вной": 3784,
      "чар": 3785,
      "опыт": 3786,
      "рит": 3787,
      "him": 3788,
      "начале": 3789,
      "хлоп": 3790,
      "жешь": 3791,
      "чудови": 3792,
      "чила": 3793,
      "успокои": 3794,
      "похожи": 3795,
      "като": 3796,
      "поинтересо": 3797,
      "оз": 3798,
      "альные": 3799,
      "ate": 3800,
      "den": 3801,
      "игры": 3802,
      "многих": 3803,
      "струк": 3804,
      "бля": 3805,
      "фили": 3806,
      "ze": 3807,
      "участи": 3808,
      "другую": 3809,
      "утро": 3810,
      "дото": 3811,
      "кать": 3812,
      "заним": 3813,
      "наве": 3814,
      "проз": 3815,
      "недавно": 3816,
      "представле": 3817,
      "нен": 3818,
      "паро": 3819,
      "соз": 3820,
      "постара": 3821,
      "воде": 3822,
      "рисо": 3823,
      "семей": 3824,
      "читал": 3825,
      "обеща": 3826,
      "чехов": 3827,
      "страшно": 3828,
      "решили": 3829,
      "бесе": 3830,
      "речи": 3831,
      "иметь": 3832,
      "up": 3833,
      "леса": 3834,
      "публи": 3835,
      "берегу": 3836,
      "телефон": 3837,
      "тик": 3838,
      "wor": 3839,
      "дают": 3840,
      "сына": 3841,
      "къ": 3842,
      "примерно": 3843,
      "лежал": 3844,
      "оборот": 3845,
      "дура": 3846,
      "зерк": 3847,
      "моим": 3848,
      "стый": 3849,
      "движения": 3850,
      "проник": 3851,
      "нях": 3852,
      "тысячи": 3853,
      "благодаря": 3854,
      "бю": 3855,
      "зага": 3856,
      "des": 3857,
      "причем": 3858,
      "лага": 3859,
      "помог": 3860,
      "гаре": 3861,
      "бин": 3862,
      "считал": 3863,
      "кот": 3864,
      "пропа": 3865,
      "mu": 3866,
      "ies": 3867,
      "ниц": 3868,
      "пусто": 3869,
      "пришла": 3870,
      "клина": 3871,
      "ступить": 3872,
      "серди": 3873,
      "указа": 3874,
      "угодно": 3875,
      "никому": 3876,
      "итак": 3877,
      "действия": 3878,
      "женные": 3879,
      "mar": 3880,
      "ниться": 3881,
      "временем": 3882,
      "отношения": 3883,
      "телями": 3884,
      "разы": 3885,
      "глупо": 3886,
      "эф": 3887,
      "хочется": 3888,
      "полковник": 3889,
      "мисс": 3890,
      "беско": 3891,
      "бру": 3892,
      "ногу": 3893,
      "ot": 3894,
      "сели": 3895,
      "посту": 3896,
      "лл": 3897,
      "етесь": 3898,
      "шем": 3899,
      "голоса": 3900,
      "людям": 3901,
      "национа": 3902,
      "пальцы": 3903,
      "слышала": 3904,
      "шение": 3905,
      "вынужде": 3906,
      "клад": 3907,
      "тет": 3908,
      "суме": 3909,
      "рі": 3910,
      "людьми": 3911,
      "поко": 3912,
      "оставля": 3913,
      "отоз": 3914,
      "ді": 3915,
      "быстрее": 3916,
      "наме": 3917,
      "ступе": 3918,
      "расс": 3919,
      "лыми": 3920,
      "проговорил": 3921,
      "села": 3922,
      "узна": 3923,
      "ссср": 3924,
      "колду": 3925,
      "стера": 3926,
      "твоя": 3927,
      "запре": 3928,
      "стороне": 3929,
      "движение": 3930,
      "сильнее": 3931,
      "приказал": 3932,
      "пало": 3933,
      "послыш": 3934,
      "распро": 3935,
      "приблизи": 3936,
      "указ": 3937,
      "заметила": 3938,
      "пку": 3939,
      "отвра": 3940,
      "sch": 3941,
      "бума": 3942,
      "they": 3943,
      "исследова": 3944,
      "кожа": 3945,
      "правду": 3946,
      "чуде": 3947,
      "желание": 3948,
      "сади": 3949,
      "писать": 3950,
      "качестве": 3951,
      "господи": 3952,
      "цепи": 3953,
      "зин": 3954,
      "виа": 3955,
      "торже": 3956,
      "запла": 3957,
      "степе": 3958,
      "прошел": 3959,
      "творе": 3960,
      "онов": 3961,
      "ненави": 3962,
      "gen": 3963,
      "вшими": 3964,
      "лена": 3965,
      "вза": 3966,
      "вспомина": 3967,
      "тень": 3968,
      "ложил": 3969,
      "счасть": 3970,
      "коно": 3971,
      "книги": 3972,
      "мело": 3973,
      "сай": 3974,
      "умира": 3975,
      "чехо": 3976,
      "нужен": 3977,
      "шеб": 3978,
      "дья": 3979,
      "автомоби": 3980,
      "союз": 3981,
      "повторя": 3982,
      "дного": 3983,
      "ev": 3984,
      "альных": 3985,
      "чными": 3986,
      "zy": 3987,
      "ам": 3988,
      "тяну": 3989,
      "космо": 3990,
      "отлично": 3991,
      "авгу": 3992,
      "засты": 3993,
      "хво": 3994,
      "рье": 3995,
      "самому": 3996,
      "руба": 3997,
      "которыми": 3998,
      "увидела": 3999,
      "co": 4000,
      "stalin": 4001,
      "чтоб": 4002,
      "сда": 4003,
      "источ": 4004,
      "аз": 4005,
      "ті": 4006,
      "волшеб": 4007,
      "хватил": 4008,
      "двумя": 4009,
      "звук": 4010,
      "жер": 4011,
      "шер": 4012,
      "пута": 4013,
      "часы": 4014,
      "плечи": 4015,
      "знакоми": 4016,
      "управля": 4017,
      "делал": 4018,
      "решила": 4019,
      "принял": 4020,
      "тридцать": 4021,
      "пробормотал": 4022,
      "поте": 4023,
      "чарова": 4024,
      "напротив": 4025,
      "широко": 4026,
      "жных": 4027,
      "професси": 4028,
      "библи": 4029,
      "показа": 4030,
      "ушел": 4031,
      "вашей": 4032,
      "помнил": 4033,
      "чало": 4034,
      "размыш": 4035,
      "войска": 4036,
      "подумала": 4037,
      "ногами": 4038,
      "шения": 4039,
      "крей": 4040,
      "пришли": 4041,
      "пило": 4042,
      "эки": 4043,
      "страда": 4044,
      "пользу": 4045,
      "жут": 4046,
      "остави": 4047,
      "мых": 4048,
      "последнее": 4049,
      "br": 4050,
      "изум": 4051,
      "пуля": 4052,
      "слабо": 4053,
      "ака": 4054,
      "радио": 4055,
      "зрения": 4056,
      "смы": 4057,
      "зии": 4058,
      "устрои": 4059,
      "находился": 4060,
      "зала": 4061,
      "193": 4062,
      "колени": 4063,
      "тща": 4064,
      "здра": 4065,
      "пут": 4066,
      "солнца": 4067,
      "стря": 4068,
      "ара": 4069,
      "раза": 4070,
      "посы": 4071,
      "верси": 4072,
      "поговорить": 4073,
      "анти": 4074,
      "str": 4075,
      "чили": 4076,
      "нечего": 4077,
      "язык": 4078,
      "шими": 4079,
      "непри": 4080,
      "восхи": 4081,
      "народа": 4082,
      "упал": 4083,
      "гарри": 4084,
      "стую": 4085,
      "вида": 4086,
      "позади": 4087,
      "ага": 4088,
      "рта": 4089,
      "новых": 4090,
      "события": 4091,
      "емый": 4092,
      "йтесь": 4093,
      "усмехнулся": 4094,
      "жаль": 4095,
      "соци": 4096,
      "девочка": 4097,
      "удовле": 4098,
      "изда": 4099,
      "чкой": 4100,
      "принци": 4101,
      "ien": 4102,
      "считать": 4103,
      "мин": 4104,
      "дном": 4105,
      "спину": 4106,
      "упа": 4107,
      "страны": 4108,
      "поры": 4109,
      "видите": 4110,
      "женщин": 4111,
      "средото": 4112,
      "стране": 4113,
      "общем": 4114,
      "нашли": 4115,
      "команду": 4116,
      "видит": 4117,
      "изба": 4118,
      "стараясь": 4119,
      "che": 4120,
      "долги": 4121,
      "уил": 4122,
      "ведли": 4123,
      "словами": 4124,
      "брата": 4125,
      "нько": 4126,
      "разно": 4127,
      "ничто": 4128,
      "щему": 4129,
      "небольшой": 4130,
      "стях": 4131,
      "сообщил": 4132,
      "дные": 4133,
      "ссы": 4134,
      "роман": 4135,
      "теа": 4136,
      "дых": 4137,
      "льного": 4138,
      "явление": 4139,
      "скла": 4140,
      "вашего": 4141,
      "вышла": 4142,
      "ального": 4143,
      "va": 4144,
      "iz": 4145,
      "небе": 4146,
      "начало": 4147,
      "броса": 4148,
      "скре": 4149,
      "неде": 4150,
      "разил": 4151,
      "водя": 4152,
      "послуша": 4153,
      "oug": 4154,
      "нат": 4155,
      "хнул": 4156,
      "брю": 4157,
      "истори": 4158,
      "тельную": 4159,
      "любви": 4160,
      "проте": 4161,
      "вов": 4162,
      "йдет": 4163,
      "осе": 4164,
      "секунд": 4165,
      "честно": 4166,
      "покой": 4167,
      "обеспе": 4168,
      "ограни": 4169,
      "дире": 4170,
      "окно": 4171,
      "хру": 4172,
      "форме": 4173,
      "ченный": 4174,
      "великоле": 4175,
      "мости": 4176,
      "нина": 4177,
      "одному": 4178,
      "щими": 4179,
      "ственного": 4180,
      "шат": 4181,
      "казать": 4182,
      "востор": 4183,
      "рица": 4184,
      "обязательно": 4185,
      "ha": 4186,
      "вста": 4187,
      "фотографи": 4188,
      "тную": 4189,
      "ремо": 4190,
      "хозяин": 4191,
      "никакой": 4192,
      "зме": 4193,
      "бесконе": 4194,
      "улыба": 4195,
      "находя": 4196,
      "боюсь": 4197,
      "справи": 4198,
      "мани": 4199,
      "зубы": 4200,
      "показал": 4201,
      "каждого": 4202,
      "компью": 4203,
      "любил": 4204,
      "мужчины": 4205,
      "летел": 4206,
      "большая": 4207,
      "тного": 4208,
      "пожи": 4209,
      "лі": 4210,
      "водой": 4211,
      "дочь": 4212,
      "бов": 4213,
      "рано": 4214,
      "долла": 4215,
      "гант": 4216,
      "друзей": 4217,
      "шает": 4218,
      "бі": 4219,
      "слуши": 4220,
      "зан": 4221,
      "эле": 4222,
      "форму": 4223,
      "случайно": 4224,
      "уто": 4225,
      "рассказал": 4226,
      "командир": 4227,
      "аппара": 4228,
      "анто": 4229,
      "заявил": 4230,
      "большую": 4231,
      "аэ": 4232,
      "вшему": 4233,
      "кен": 4234,
      "читать": 4235,
      "сыпа": 4236,
      "сухо": 4237,
      "твои": 4238,
      "история": 4239,
      "королева": 4240,
      "трое": 4241,
      "понадо": 4242,
      "тюрь": 4243,
      "ужи": 4244,
      "внизу": 4245,
      "группы": 4246,
      "практически": 4247,
      "никам": 4248,
      "доли": 4249,
      "большое": 4250,
      "бого": 4251,
      "трубку": 4252,
      "бежать": 4253,
      "попросил": 4254,
      "сделала": 4255,
      "впечатление": 4256,
      "щался": 4257,
      "выход": 4258,
      "крик": 4259,
      "now": 4260,
      "ас": 4261,
      "вышли": 4262,
      "превос": 4263,
      "стым": 4264,
      "пуск": 4265,
      "заставля": 4266,
      "вах": 4267,
      "ine": 4268,
      "уверенно": 4269,
      "ственный": 4270,
      "смысле": 4271,
      "мора": 4272,
      "гит": 4273,
      "поддержи": 4274,
      "чика": 4275,
      "сознание": 4276,
      "штур": 4277,
      "растеря": 4278,
      "жест": 4279,
      "тим": 4280,
      "обли": 4281,
      "храни": 4282,
      "пес": 4283,
      "представить": 4284,
      "ходе": 4285,
      "ряда": 4286,
      "солне": 4287,
      "дальней": 4288,
      "старо": 4289,
      "испыта": 4290,
      "камень": 4291,
      "пережи": 4292,
      "est": 4293,
      "сказали": 4294,
      "надцати": 4295,
      "характер": 4296,
      "уйти": 4297,
      "дных": 4298,
      "спер": 4299,
      "оли": 4300,
      "ment": 4301,
      "дое": 4302,
      "девушки": 4303,
      "кофе": 4304,
      "кивнула": 4305,
      "ob": 4306,
      "кет": 4307,
      "здоров": 4308,
      "вича": 4309,
      "безопасности": 4310,
      "джен": 4311,
      "посмотреть": 4312,
      "реак": 4313,
      "секунду": 4314,
      "ребе": 4315,
      "телю": 4316,
      "остались": 4317,
      "всякий": 4318,
      "вки": 4319,
      "памяти": 4320,
      "увле": 4321,
      "весело": 4322,
      "баль": 4323,
      "стить": 4324,
      "беспокой": 4325,
      "чались": 4326,
      "die": 4327,
      "зен": 4328,
      "заклина": 4329,
      "писы": 4330,
      "деми": 4331,
      "плен": 4332,
      "fo": 4333,
      "предме": 4334,
      "разби": 4335,
      "тает": 4336,
      "тяги": 4337,
      "обратился": 4338,
      "жд": 4339,
      "сар": 4340,
      "задумчиво": 4341,
      "собирался": 4342,
      "стья": 4343,
      "лия": 4344,
      "устало": 4345,
      "деревя": 4346,
      "грома": 4347,
      "жено": 4348,
      "пистолет": 4349,
      "появилась": 4350,
      "пользо": 4351,
      "твори": 4352,
      "дорогой": 4353,
      "рис": 4354,
      "нда": 4355,
      "знамени": 4356,
      "прибы": 4357,
      "противника": 4358,
      "крепко": 4359,
      "жений": 4360,
      "видом": 4361,
      "решительно": 4362,
      "хотели": 4363,
      "bu": 4364,
      "иван": 4365,
      "ниям": 4366,
      "обу": 4367,
      "готовле": 4368,
      "веж": 4369,
      "неделю": 4370,
      "вернулась": 4371,
      "страха": 4372,
      "человеку": 4373,
      "скать": 4374,
      "цент": 4375,
      "ok": 4376,
      "экипа": 4377,
      "перво": 4378,
      "ity": 4379,
      "програм": 4380,
      "сделали": 4381,
      "бои": 4382,
      "фир": 4383,
      "чном": 4384,
      "пав": 4385,
      "испуга": 4386,
      "ровали": 4387,
      "нилась": 4388,
      "16": 4389,
      "рассматри": 4390,
      "столом": 4391,
      "порт": 4392,
      "воли": 4393,
      "научи": 4394,
      "нако": 4395,
      "направля": 4396,
      "увидев": 4397,
      "большим": 4398,
      "одоле": 4399,
      "естественно": 4400,
      "обез": 4401,
      "поводу": 4402,
      "загля": 4403,
      "моро": 4404,
      "воспи": 4405,
      "гно": 4406,
      "йо": 4407,
      "ary": 4408,
      "еже": 4409,
      "ственных": 4410,
      "жным": 4411,
      "совреме": 4412,
      "пит": 4413,
      "ребята": 4414,
      "син": 4415,
      "понимаешь": 4416,
      "власть": 4417,
      "кі": 4418,
      "разобра": 4419,
      "кино": 4420,
      "нужна": 4421,
      "адре": 4422,
      "ans": 4423,
      "эффе": 4424,
      "сопроти": 4425,
      "возбу": 4426,
      "улыбкой": 4427,
      "стся": 4428,
      "забыл": 4429,
      "дыхание": 4430,
      "кта": 4431,
      "колле": 4432,
      "стоило": 4433,
      "сосредото": 4434,
      "люблю": 4435,
      "корпу": 4436,
      "счет": 4437,
      "валя": 4438,
      "дух": 4439,
      "группа": 4440,
      "сва": 4441,
      "полной": 4442,
      "направился": 4443,
      "био": 4444,
      "оч": 4445,
      "мужи": 4446,
      "вось": 4447,
      "вырази": 4448,
      "лестнице": 4449,
      "играть": 4450,
      "каком": 4451,
      "слух": 4452,
      "предпо": 4453,
      "принялся": 4454,
      "винова": 4455,
      "af": 4456,
      "лейтенант": 4457,
      "спаль": 4458,
      "этими": 4459,
      "воин": 4460,
      "следовало": 4461,
      "определи": 4462,
      "поя": 4463,
      "ждая": 4464,
      "близко": 4465,
      "роберт": 4466,
      "углу": 4467,
      "внут": 4468,
      "лесу": 4469,
      "сестра": 4470,
      "большие": 4471,
      "лай": 4472,
      "возьми": 4473,
      "пки": 4474,
      "вае": 4475,
      "середи": 4476,
      "москов": 4477,
      "очи": 4478,
      "упор": 4479,
      "архи": 4480,
      "большинство": 4481,
      "прода": 4482,
      "зовут": 4483,
      "сить": 4484,
      "нака": 4485,
      "подумать": 4486,
      "ниже": 4487,
      "дент": 4488,
      "века": 4489,
      "третий": 4490,
      "прось": 4491,
      "близо": 4492,
      "нужны": 4493,
      "чики": 4494,
      "уг": 4495,
      "мара": 4496,
      "делает": 4497,
      "обру": 4498,
      "герма": 4499,
      "du": 4500,
      "нё": 4501,
      "библиоте": 4502,
      "кость": 4503,
      "дрог": 4504,
      "зар": 4505,
      "иму": 4506,
      "компании": 4507,
      "приро": 4508,
      "живет": 4509,
      "нахму": 4510,
      "рассчиты": 4511,
      "смыс": 4512,
      "нович": 4513,
      "отки": 4514,
      "неподви": 4515,
      "гай": 4516,
      "бел": 4517,
      "электро": 4518,
      "комму": 4519,
      "постави": 4520,
      "шок": 4521,
      "ребенка": 4522,
      "охва": 4523,
      "возвраща": 4524,
      "горы": 4525,
      "кнулся": 4526,
      "металли": 4527,
      "сит": 4528,
      "прочь": 4529,
      "кари": 4530,
      "гались": 4531,
      "память": 4532,
      "таре": 4533,
      "бесс": 4534,
      "жё": 4535,
      "кай": 4536,
      "вечно": 4537,
      "отдель": 4538,
      "боги": 4539,
      "шевели": 4540,
      "lu": 4541,
      "знак": 4542,
      "большого": 4543,
      "жного": 4544,
      "сказы": 4545,
      "ck": 4546,
      "зало": 4547,
      "джек": 4548,
      "бах": 4549,
      "act": 4550,
      "касается": 4551,
      "чалось": 4552,
      "ступила": 4553,
      "нал": 4554,
      "делом": 4555,
      "насла": 4556,
      "стоять": 4557,
      "заба": 4558,
      "ческом": 4559,
      "бою": 4560,
      "дке": 4561,
      "ехала": 4562,
      "приобре": 4563,
      "лях": 4564,
      "аккура": 4565,
      "букваль": 4566,
      "уров": 4567,
      "ур": 4568,
      "собственной": 4569,
      "понадоби": 4570,
      "внутрь": 4571,
      "подума": 4572,
      "повторил": 4573,
      "тради": 4574,
      "сидя": 4575,
      "бели": 4576,
      "знают": 4577,
      "мгновенно": 4578,
      "гора": 4579,
      "насчет": 4580,
      "ответа": 4581,
      "появля": 4582,
      "ниж": 4583,
      "пили": 4584,
      "жизне": 4585,
      "нетерпе": 4586,
      "прер": 4587,
      "работе": 4588,
      "30": 4589,
      "cr": 4590,
      "выйти": 4591,
      "льзу": 4592,
      "проби": 4593,
      "верши": 4594,
      "похи": 4595,
      "возгла": 4596,
      "отор": 4597,
      "душу": 4598,
      "оставил": 4599,
      "бые": 4600,
      "прием": 4601,
      "мень": 4602,
      "месяц": 4603,
      "рома": 4604,
      "сочи": 4605,
      "зова": 4606,
      "red": 4607,
      "тная": 4608,
      "нилось": 4609,
      "обма": 4610,
      "днев": 4611,
      "наслед": 4612,
      "пошла": 4613,
      "дера": 4614,
      "удивился": 4615,
      "сидели": 4616,
      "зади": 4617,
      "голосе": 4618,
      "ственные": 4619,
      "марш": 4620,
      "абсолютно": 4621,
      "произведе": 4622,
      "остается": 4623,
      "торго": 4624,
      "объяснить": 4625,
      "жаться": 4626,
      "времен": 4627,
      "неприятно": 4628,
      "преступ": 4629,
      "смысл": 4630,
      "чко": 4631,
      "тщательно": 4632,
      "ied": 4633,
      "бай": 4634,
      "приез": 4635,
      "разбира": 4636,
      "отправля": 4637,
      "связь": 4638,
      "женных": 4639,
      "предполо": 4640,
      "hr": 4641,
      "ome": 4642,
      "навстречу": 4643,
      "нося": 4644,
      "поса": 4645,
      "вят": 4646,
      "сотни": 4647,
      "одни": 4648,
      "удастся": 4649,
      "еле": 4650,
      "обстанов": 4651,
      "блестя": 4652,
      "марк": 4653,
      "воспользо": 4654,
      "зами": 4655,
      "решения": 4656,
      "историю": 4657,
      "всад": 4658,
      "веле": 4659,
      "fa": 4660,
      "четырех": 4661,
      "рыва": 4662,
      "андрей": 4663,
      "угол": 4664,
      "млад": 4665,
      "достал": 4666,
      "чья": 4667,
      "пого": 4668,
      "ющихся": 4669,
      "малей": 4670,
      "стры": 4671,
      "уча": 4672,
      "госпожа": 4673,
      "ворота": 4674,
      "выражение": 4675,
      "хими": 4676,
      "преступле": 4677,
      "священ": 4678,
      "папа": 4679,
      "война": 4680,
      "импе": 4681,
      "ченные": 4682,
      "потребо": 4683,
      "добы": 4684,
      "ъл": 4685,
      "всяком": 4686,
      "прили": 4687,
      "ковой": 4688,
      "остальных": 4689,
      "немало": 4690,
      "отправился": 4691,
      "укры": 4692,
      "вино": 4693,
      "охран": 4694,
      "кир": 4695,
      "волно": 4696,
      "гос": 4697,
      "кровати": 4698,
      "вные": 4699,
      "сердца": 4700,
      "авиа": 4701,
      "искрен": 4702,
      "жка": 4703,
      "распах": 4704,
      "ła": 4705,
      "емые": 4706,
      "посл": 4707,
      "точку": 4708,
      "сорок": 4709,
      "др": 4710,
      "вера": 4711,
      "pa": 4712,
      "повели": 4713,
      "взяла": 4714,
      "лицу": 4715,
      "отре": 4716,
      "обраща": 4717,
      "заре": 4718,
      "напол": 4719,
      "делу": 4720,
      "чон": 4721,
      "посо": 4722,
      "ваюсь": 4723,
      "гает": 4724,
      "половину": 4725,
      "скажите": 4726,
      "состояние": 4727,
      "нашу": 4728,
      "давайте": 4729,
      "лист": 4730,
      "множество": 4731,
      "евич": 4732,
      "марки": 4733,
      "мысленно": 4734,
      "начальник": 4735,
      "ight": 4736,
      "пои": 4737,
      "рно": 4738,
      "замок": 4739,
      "понрави": 4740,
      "великий": 4741,
      "тоном": 4742,
      "первую": 4743,
      "действовать": 4744,
      "осуще": 4745,
      "ждет": 4746,
      "знаем": 4747,
      "великолеп": 4748,
      "министра": 4749,
      "щали": 4750,
      "черно": 4751,
      "будете": 4752,
      "существует": 4753,
      "эконо": 4754,
      "интер": 4755,
      "стности": 4756,
      "моем": 4757,
      "улицу": 4758,
      "there": 4759,
      "черные": 4760,
      "pre": 4761,
      "бую": 4762,
      "шили": 4763,
      "зия": 4764,
      "ell": 4765,
      "стаи": 4766,
      "dis": 4767,
      "бросился": 4768,
      "недели": 4769,
      "чением": 4770,
      "ктивно": 4771,
      "днем": 4772,
      "said": 4773,
      "жался": 4774,
      "слезы": 4775,
      "одея": 4776,
      "wo": 4777,
      "тр": 4778,
      "обернулся": 4779,
      "would": 4780,
      "тики": 4781,
      "дэ": 4782,
      "рилась": 4783,
      "тября": 4784,
      "zu": 4785,
      "who": 4786,
      "отвле": 4787,
      "произнесла": 4788,
      "недель": 4789,
      "расши": 4790,
      "проду": 4791,
      "обита": 4792,
      "времена": 4793,
      "ят": 4794,
      "окончательно": 4795,
      "фар": 4796,
      "мужа": 4797,
      "обещал": 4798,
      "порядок": 4799,
      "фаль": 4800,
      "ers": 4801,
      "тара": 4802,
      "серьезно": 4803,
      "твоей": 4804,
      "письме": 4805,
      "рим": 4806,
      "шель": 4807,
      "пота": 4808,
      "единственный": 4809,
      "блу": 4810,
      "инстру": 4811,
      "чрез": 4812,
      "дная": 4813,
      "прие": 4814,
      "пальцами": 4815,
      "раду": 4816,
      "супру": 4817,
      "полез": 4818,
      "сче": 4819,
      "труда": 4820,
      "цер": 4821,
      "рили": 4822,
      "ктов": 4823,
      "семьи": 4824,
      "установи": 4825,
      "його": 4826,
      "анна": 4827,
      "рует": 4828,
      "кну": 4829,
      "доказа": 4830,
      "открове": 4831,
      "взор": 4832,
      "иллю": 4833,
      "йор": 4834,
      "куро": 4835,
      "бег": 4836,
      "рассказать": 4837,
      "друже": 4838,
      "первое": 4839,
      "респу": 4840,
      "чне": 4841,
      "лера": 4842,
      "такими": 4843,
      "самая": 4844,
      "рели": 4845,
      "уса": 4846,
      "стрем": 4847,
      "гигант": 4848,
      "игру": 4849,
      "пальцем": 4850,
      "руководи": 4851,
      "имуще": 4852,
      "mi": 4853,
      "письма": 4854,
      "реки": 4855,
      "dz": 4856,
      "щен": 4857,
      "имею": 4858,
      "князь": 4859,
      "шёл": 4860,
      "существа": 4861,
      "летом": 4862,
      "испу": 4863,
      "разных": 4864,
      "сидела": 4865,
      "скром": 4866,
      "фин": 4867,
      "республи": 4868,
      "служа": 4869,
      "достой": 4870,
      "ура": 4871,
      "шали": 4872,
      "составля": 4873,
      "чан": 4874,
      "видя": 4875,
      "ющиеся": 4876,
      "подви": 4877,
      "черный": 4878,
      "неуда": 4879,
      "дис": 4880,
      "шею": 4881,
      "станции": 4882,
      "ева": 4883,
      "wn": 4884,
      "моги": 4885,
      "телям": 4886,
      "сель": 4887,
      "щик": 4888,
      "взро": 4889,
      "мето": 4890,
      "любле": 4891,
      "бки": 4892,
      "уга": 4893,
      "светло": 4894,
      "пливо": 4895,
      "зови": 4896,
      "буквально": 4897,
      "влади": 4898,
      "ужасно": 4899,
      "экономи": 4900,
      "остаться": 4901,
      "худож": 4902,
      "алы": 4903,
      "выру": 4904,
      "инди": 4905,
      "пойдем": 4906,
      "появились": 4907,
      "мужчин": 4908,
      "вампи": 4909,
      "лоб": 4910,
      "камне": 4911,
      "порази": 4912,
      "реально": 4913,
      "брасы": 4914,
      "месяцев": 4915,
      "дным": 4916,
      "бросить": 4917,
      "шпи": 4918,
      "чиков": 4919,
      "мена": 4920,
      "собе": 4921,
      "горизон": 4922,
      "целый": 4923,
      "присоеди": 4924,
      "няли": 4925,
      "предстоя": 4926,
      "объя": 4927,
      "центре": 4928,
      "уте": 4929,
      "щала": 4930,
      "кале": 4931,
      "ning": 4932,
      "рыца": 4933,
      "останавли": 4934,
      "новое": 4935,
      "any": 4936,
      "тишина": 4937,
      "рэн": 4938,
      "кап": 4939,
      "забра": 4940,
      "лами": 4941,
      "граждан": 4942,
      "оставить": 4943,
      "стену": 4944,
      "торы": 4945,
      "беспокои": 4946,
      "слышали": 4947,
      "дорога": 4948,
      "вообра": 4949,
      "кси": 4950,
      "привык": 4951,
      "ключ": 4952,
      "кабинет": 4953,
      "платье": 4954,
      "спасти": 4955,
      "жур": 4956,
      "врага": 4957,
      "целе": 4958,
      "thing": 4959,
      "звер": 4960,
      "уши": 4961,
      "проблемы": 4962,
      "кресло": 4963,
      "долларов": 4964,
      "трю": 4965,
      "провел": 4966,
      "навсегда": 4967,
      "подходя": 4968,
      "спасе": 4969,
      "юри": 4970,
      "драго": 4971,
      "шет": 4972,
      "стару": 4973,
      "стихи": 4974,
      "альным": 4975,
      "ряды": 4976,
      "щении": 4977,
      "ствуют": 4978,
      "чены": 4979,
      "твое": 4980,
      "опасности": 4981,
      "познакоми": 4982,
      "ждала": 4983,
      "словом": 4984,
      "поним": 4985,
      "каждой": 4986,
      "been": 4987,
      "ане": 4988,
      "академи": 4989,
      "ческими": 4990,
      "косми": 4991,
      "становится": 4992,
      "держаться": 4993,
      "поставил": 4994,
      "постели": 4995,
      "ini": 4996,
      "броше": 4997,
      "13": 4998,
      "пасса": 4999,
      "бат": 5000,
      "проща": 5001,
      "шести": 5002,
      "эд": 5003,
      "поинтересовался": 5004,
      "ser": 5005,
      "попыта": 5006,
      "сигаре": 5007,
      "ственным": 5008,
      "вятся": 5009,
      "таи": 5010,
      "льных": 5011,
      "несомне": 5012,
      "обнаружил": 5013,
      "крики": 5014,
      "sel": 5015,
      "ухо": 5016,
      "бумаги": 5017,
      "попал": 5018,
      "суро": 5019,
      "огра": 5020,
      "емых": 5021,
      "новую": 5022,
      "деревьев": 5023,
      "воздуш": 5024,
      "наблюда": 5025,
      "режи": 5026,
      "темноте": 5027,
      "няет": 5028,
      "пятьдесят": 5029,
      "прист": 5030,
      "фла": 5031,
      "щались": 5032,
      "стых": 5033,
      "баты": 5034,
      "приятно": 5035,
      "указы": 5036,
      "чился": 5037,
      "чест": 5038,
      "вана": 5039,
      "заговорил": 5040,
      "men": 5041,
      "душа": 5042,
      "ind": 5043,
      "патри": 5044,
      "провер": 5045,
      "разгля": 5046,
      "заинтересо": 5047,
      "почувствовала": 5048,
      "зря": 5049,
      "неплохо": 5050,
      "подобно": 5051,
      "доверя": 5052,
      "невиди": 5053,
      "боло": 5054,
      "больно": 5055,
      "вление": 5056,
      "тина": 5057,
      "ствовали": 5058,
      "старший": 5059,
      "месяца": 5060,
      "крепо": 5061,
      "шит": 5062,
      "tu": 5063,
      "напи": 5064,
      "разгляды": 5065,
      "позд": 5066,
      "обой": 5067,
      "шагов": 5068,
      "факт": 5069,
      "восста": 5070,
      "отчет": 5071,
      "микро": 5072,
      "ang": 5073,
      "водо": 5074,
      "tim": 5075,
      "тию": 5076,
      "пройти": 5077,
      "мария": 5078,
      "попробо": 5079,
      "нились": 5080,
      "адмира": 5081,
      "сзади": 5082,
      "подошла": 5083,
      "позволи": 5084,
      "чена": 5085,
      "джор": 5086,
      "использовать": 5087,
      "ощущение": 5088,
      "жению": 5089,
      "неё": 5090,
      "сидеть": 5091,
      "гари": 5092,
      "чаще": 5093,
      "правитель": 5094,
      "вка": 5095,
      "небре": 5096,
      "драгоце": 5097,
      "подним": 5098,
      "ял": 5099,
      "ванием": 5100,
      "жались": 5101,
      "многое": 5102,
      "приходится": 5103,
      "ov": 5104,
      "оружия": 5105,
      "ts": 5106,
      "рост": 5107,
      "грей": 5108,
      "lic": 5109,
      "недоуме": 5110,
      "берег": 5111,
      "льные": 5112,
      "ame": 5113,
      "сверху": 5114,
      "другому": 5115,
      "разда": 5116,
      "разные": 5117,
      "ein": 5118,
      "оскор": 5119,
      "чалась": 5120,
      "некоторых": 5121,
      "гроз": 5122,
      "тва": 5123,
      "фак": 5124,
      "моли": 5125,
      "встречи": 5126,
      "принц": 5127,
      "подвер": 5128,
      "написал": 5129,
      "пога": 5130,
      "пласти": 5131,
      "звуки": 5132,
      "прозра": 5133,
      "шлю": 5134,
      "магази": 5135,
      "ницей": 5136,
      "око": 5137,
      "отвечал": 5138,
      "соло": 5139,
      "призы": 5140,
      "использу": 5141,
      "нив": 5142,
      "сомнения": 5143,
      "вър": 5144,
      "фантасти": 5145,
      "фило": 5146,
      "ой": 5147,
      "вель": 5148,
      "вариан": 5149,
      "онь": 5150,
      "книгу": 5151,
      "машине": 5152,
      "старался": 5153,
      "зой": 5154,
      "съе": 5155,
      "мами": 5156,
      "выбира": 5157,
      "рожде": 5158,
      "москве": 5159,
      "son": 5160,
      "жий": 5161,
      "профессор": 5162,
      "другими": 5163,
      "верей": 5164,
      "петро": 5165,
      "what": 5166,
      "кэ": 5167,
      "вяза": 5168,
      "воздуха": 5169,
      "фамили": 5170,
      "ментов": 5171,
      "отказы": 5172,
      "величество": 5173,
      "другая": 5174,
      "первая": 5175,
      "схватил": 5176,
      "потерял": 5177,
      "всюду": 5178,
      "тотчас": 5179,
      "осталась": 5180,
      "поверхности": 5181,
      "биз": 5182,
      "высокий": 5183,
      "александр": 5184,
      "ard": 5185,
      "второго": 5186,
      "чив": 5187,
      "махнул": 5188,
      "mit": 5189,
      "жизнью": 5190,
      "ол": 5191,
      "неизвест": 5192,
      "суб": 5193,
      "подняла": 5194,
      "прошептал": 5195,
      "ът": 5196,
      "противополо": 5197,
      "результате": 5198,
      "вец": 5199,
      "ступать": 5200,
      "аги": 5201,
      "степени": 5202,
      "майор": 5203,
      "обстоятельства": 5204,
      "слава": 5205,
      "нис": 5206,
      "реша": 5207,
      "комен": 5208,
      "крепле": 5209,
      "возразил": 5210,
      "говорите": 5211,
      "нашим": 5212,
      "ющийся": 5213,
      "бей": 5214,
      "ack": 5215,
      "фли": 5216,
      "хватало": 5217,
      "япон": 5218,
      "двадцати": 5219,
      "холодно": 5220,
      "профессиона": 5221,
      "las": 5222,
      "продолжала": 5223,
      "гнуть": 5224,
      "лихо": 5225,
      "ею": 5226,
      "ваших": 5227,
      "дона": 5228,
      "девушку": 5229,
      "здания": 5230,
      "ответить": 5231,
      "носил": 5232,
      "госуда": 5233,
      "наиболее": 5234,
      "вернулись": 5235,
      "mon": 5236,
      "пребы": 5237,
      "кно": 5238,
      "хороший": 5239,
      "работает": 5240,
      "достоин": 5241,
      "курт": 5242,
      "жав": 5243,
      "вздохнула": 5244,
      "интересу": 5245,
      "чьи": 5246,
      "ярко": 5247,
      "other": 5248,
      "двой": 5249,
      "чах": 5250,
      "хотят": 5251,
      "иду": 5252,
      "доче": 5253,
      "пришло": 5254,
      "справедли": 5255,
      "чительно": 5256,
      "белый": 5257,
      "альное": 5258,
      "ted": 5259,
      "приба": 5260,
      "крест": 5261,
      "улицы": 5262,
      "слушать": 5263,
      "вных": 5264,
      "pos": 5265,
      "устраи": 5266,
      "желая": 5267,
      "системы": 5268,
      "берега": 5269,
      "настоящий": 5270,
      "любит": 5271,
      "отозвался": 5272,
      "ледя": 5273,
      "туру": 5274,
      "удивля": 5275,
      "нией": 5276,
      "кат": 5277,
      "жене": 5278,
      "дкой": 5279,
      "богу": 5280,
      "пойти": 5281,
      "ликнула": 5282,
      "торопливо": 5283,
      "жился": 5284,
      "тят": 5285,
      "нений": 5286,
      "твердо": 5287,
      "виз": 5288,
      "диа": 5289,
      "стере": 5290,
      "еврей": 5291,
      "спек": 5292,
      "куп": 5293,
      "носить": 5294,
      "подозри": 5295,
      "нашем": 5296,
      "местах": 5297,
      "кровью": 5298,
      "солдаты": 5299,
      "фил": 5300,
      "поколе": 5301,
      "удивительно": 5302,
      "крат": 5303,
      "слушал": 5304,
      "вечера": 5305,
      "дря": 5306,
      "пассажи": 5307,
      "прями": 5308,
      "лев": 5309,
      "дивизи": 5310,
      "огромный": 5311,
      "ong": 5312,
      "держался": 5313,
      "люсь": 5314,
      "рту": 5315,
      "молчали": 5316,
      "пространство": 5317,
      "бая": 5318,
      "наоборот": 5319,
      "калли": 5320,
      "поиска": 5321,
      "зил": 5322,
      "łem": 5323,
      "спорт": 5324,
      "отры": 5325,
      "насме": 5326,
      "производ": 5327,
      "some": 5328,
      "животных": 5329,
      "мали": 5330,
      "tak": 5331,
      "форми": 5332,
      "лабора": 5333,
      "сби": 5334,
      "довери": 5335,
      "несло": 5336,
      "краю": 5337,
      "товарищ": 5338,
      "туре": 5339,
      "отряд": 5340,
      "хро": 5341,
      "услыша": 5342,
      "матро": 5343,
      "ive": 5344,
      "убил": 5345,
      "планеты": 5346,
      "звезды": 5347,
      "направлении": 5348,
      "довать": 5349,
      "пересе": 5350,
      "чайно": 5351,
      "прон": 5352,
      "груз": 5353,
      "спросить": 5354,
      "контра": 5355,
      "шле": 5356,
      "вит": 5357,
      "сой": 5358,
      "содержа": 5359,
      "лошади": 5360,
      "прошли": 5361,
      "гий": 5362,
      "their": 5363,
      "звучал": 5364,
      "обоих": 5365,
      "готовы": 5366,
      "шками": 5367,
      "офицер": 5368,
      "vie": 5369,
      "way": 5370,
      "дались": 5371,
      "серебря": 5372,
      "явления": 5373,
      "ничем": 5374,
      "зак": 5375,
      "женщину": 5376,
      "невольно": 5377,
      "соро": 5378,
      "ственное": 5379,
      "руковод": 5380,
      "сье": 5381,
      "безум": 5382,
      "бам": 5383,
      "анге": 5384,
      "господа": 5385,
      "россий": 5386,
      "ловко": 5387,
      "бери": 5388,
      "сержа": 5389,
      "which": 5390,
      "шему": 5391,
      "экспеди": 5392,
      "sp": 5393,
      "думали": 5394,
      "клет": 5395,
      "шался": 5396,
      "анали": 5397,
      "заяви": 5398,
      "кинул": 5399,
      "жие": 5400,
      "able": 5401,
      "кл": 5402,
      "заря": 5403,
      "обна": 5404,
      "заслу": 5405,
      "дился": 5406,
      "ударил": 5407,
      "нусь": 5408,
      "dr": 5409,
      "поста": 5410,
      "объеди": 5411,
      "гара": 5412,
      "яз": 5413,
      "неизвестно": 5414,
      "рка": 5415,
      "эмо": 5416,
      "погля": 5417,
      "леты": 5418,
      "шила": 5419,
      "горло": 5420,
      "дах": 5421,
      "пробу": 5422,
      "ману": 5423,
      "лями": 5424,
      "получилось": 5425,
      "потер": 5426,
      "ence": 5427,
      "нео": 5428,
      "жную": 5429,
      "недоста": 5430,
      "ровала": 5431,
      "196": 5432,
      "запер": 5433,
      "старого": 5434,
      "нежно": 5435,
      "прое": 5436,
      "ступили": 5437,
      "устрой": 5438,
      "несомненно": 5439,
      "следы": 5440,
      "ach": 5441,
      "контак": 5442,
      "таин": 5443,
      "ida": 5444,
      "хала": 5445,
      "аге": 5446,
      "опасность": 5447,
      "следом": 5448,
      "ладони": 5449,
      "ухмы": 5450,
      "луи": 5451,
      "специально": 5452,
      "лежала": 5453,
      "вшимся": 5454,
      "200": 5455,
      "ребенок": 5456,
      "ally": 5457,
      "11": 5458,
      "вскри": 5459,
      "ец": 5460,
      "двинулся": 5461,
      "зависимо": 5462,
      "номе": 5463,
      "хлеб": 5464,
      "цах": 5465,
      "снял": 5466,
      "друж": 5467,
      "главный": 5468,
      "сумел": 5469,
      "судьба": 5470,
      "рису": 5471,
      "very": 5472,
      "мс": 5473,
      "несся": 5474,
      "bil": 5475,
      "осу": 5476,
      "желе": 5477,
      "ветра": 5478,
      "помя": 5479,
      "действие": 5480,
      "вато": 5481,
      "цивили": 5482,
      "объяснил": 5483,
      "оказаться": 5484,
      "указал": 5485,
      "вшаяся": 5486,
      "обыкнове": 5487,
      "сунул": 5488,
      "вшуюся": 5489,
      "показать": 5490,
      "чаю": 5491,
      "посреди": 5492,
      "джин": 5493,
      "лошадь": 5494,
      "увидели": 5495,
      "пок": 5496,
      "ier": 5497,
      "рет": 5498,
      "мяте": 5499,
      "миль": 5500,
      "пыль": 5501,
      "развле": 5502,
      "средства": 5503,
      "далее": 5504,
      "попасть": 5505,
      "количество": 5506,
      "альная": 5507,
      "сумас": 5508,
      "fer": 5509,
      "бот": 5510,
      "pu": 5511,
      "тира": 5512,
      "мягко": 5513,
      "прошла": 5514,
      "разъ": 5515,
      "видимому": 5516,
      "щел": 5517,
      "живых": 5518,
      "умере": 5519,
      "строго": 5520,
      "25": 5521,
      "театра": 5522,
      "петер": 5523,
      "валился": 5524,
      "идея": 5525,
      "изя": 5526,
      "худо": 5527,
      "осле": 5528,
      "тянул": 5529,
      "верто": 5530,
      "улыбка": 5531,
      "фей": 5532,
      "оса": 5533,
      "гвар": 5534,
      "портре": 5535,
      "управления": 5536,
      "ated": 5537,
      "дворе": 5538,
      "tur": 5539,
      "чками": 5540,
      "ожидал": 5541,
      "призра": 5542,
      "глухо": 5543,
      "ound": 5544,
      "предела": 5545,
      "мье": 5546,
      "сжи": 5547,
      "спуска": 5548,
      "галась": 5549,
      "хватило": 5550,
      "крити": 5551,
      "придет": 5552,
      "избра": 5553,
      "выглядел": 5554,
      "прида": 5555,
      "каю": 5556,
      "играл": 5557,
      "совето": 5558,
      "суд": 5559,
      "бала": 5560,
      "облег": 5561,
      "многочисле": 5562,
      "коридор": 5563,
      "способен": 5564,
      "описа": 5565,
      "производи": 5566,
      "сергей": 5567,
      "вшееся": 5568,
      "мэри": 5569,
      "делали": 5570,
      "them": 5571,
      "розо": 5572,
      "жная": 5573,
      "левой": 5574,
      "останется": 5575,
      "роско": 5576,
      "yo": 5577,
      "приказа": 5578,
      "жете": 5579,
      "находились": 5580,
      "отъ": 5581,
      "вернее": 5582,
      "церк": 5583,
      "оны": 5584,
      "полагаю": 5585,
      "неви": 5586,
      "просил": 5587,
      "женной": 5588,
      "прогу": 5589,
      "палу": 5590,
      "филосо": 5591,
      "шир": 5592,
      "пать": 5593,
      "любез": 5594,
      "награ": 5595,
      "похоро": 5596,
      "родствен": 5597,
      "атмо": 5598,
      "километров": 5599,
      "универси": 5600,
      "стям": 5601,
      "церемо": 5602,
      "пила": 5603,
      "газет": 5604,
      "силах": 5605,
      "повре": 5606,
      "нят": 5607,
      "великого": 5608,
      "нели": 5609,
      "мате": 5610,
      "стон": 5611,
      "замы": 5612,
      "событий": 5613,
      "техни": 5614,
      "воскликнула": 5615,
      "уч": 5616,
      "пель": 5617,
      "митри": 5618,
      "гордо": 5619,
      "благород": 5620,
      "потол": 5621,
      "кош": 5622,
      "огня": 5623,
      "прой": 5624,
      "бно": 5625,
      "дало": 5626,
      "порой": 5627,
      "подаль": 5628,
      "новая": 5629,
      "ваешь": 5630,
      "ходом": 5631,
      "совета": 5632,
      "умо": 5633,
      "хожу": 5634,
      "сша": 5635,
      "меж": 5636,
      "лежит": 5637,
      "объе": 5638,
      "успела": 5639,
      "мнение": 5640,
      "сведения": 5641,
      "ровно": 5642,
      "вень": 5643,
      "стату": 5644,
      "ситуации": 5645,
      "ковы": 5646,
      "вным": 5647,
      "подальше": 5648,
      "моно": 5649,
      "края": 5650,
      "волну": 5651,
      "рыз": 5652,
      "сущ": 5653,
      "успели": 5654,
      "отделе": 5655,
      "мозг": 5656,
      "оку": 5657,
      "чём": 5658,
      "чехова": 5659,
      "ие": 5660,
      "уве": 5661,
      "шут": 5662,
      "закрыл": 5663,
      "услу": 5664,
      "зас": 5665,
      "формы": 5666,
      "взо": 5667,
      "щает": 5668,
      "бросила": 5669,
      "светом": 5670,
      "виться": 5671,
      "продолжил": 5672,
      "дё": 5673,
      "сотруд": 5674,
      "особы": 5675,
      "имо": 5676,
      "врач": 5677,
      "jo": 5678,
      "семи": 5679,
      "духов": 5680,
      "службы": 5681,
      "сэм": 5682,
      "страж": 5683,
      "чувствую": 5684,
      "сожалению": 5685,
      "предложение": 5686,
      "очередной": 5687,
      "торгов": 5688,
      "уточ": 5689,
      "твоего": 5690,
      "деви": 5691,
      "хозяина": 5692,
      "отношение": 5693,
      "закричал": 5694,
      "end": 5695,
      "aga": 5696,
      "войну": 5697,
      "снег": 5698,
      "новым": 5699,
      "ланд": 5700,
      "непро": 5701,
      "слышно": 5702,
      "истре": 5703,
      "рюк": 5704,
      "вкус": 5705,
      "було": 5706,
      "фель": 5707,
      "каждым": 5708,
      "стил": 5709,
      "vo": 5710,
      "красно": 5711,
      "about": 5712,
      "рика": 5713,
      "молчание": 5714,
      "религи": 5715,
      "языке": 5716,
      "устро": 5717,
      "тропи": 5718,
      "добре": 5719,
      "слом": 5720,
      "заставил": 5721,
      "телефо": 5722,
      "капитана": 5723,
      "перегово": 5724,
      "спине": 5725,
      "вернуть": 5726,
      "канчи": 5727,
      "рассказывал": 5728,
      "вати": 5729,
      "живу": 5730,
      "нап": 5731,
      "хохот": 5732,
      "стрель": 5733,
      "оказывается": 5734,
      "вании": 5735,
      "галакти": 5736,
      "послышался": 5737,
      "момента": 5738,
      "спло": 5739,
      "вления": 5740,
      "отрица": 5741,
      "открыть": 5742,
      "связ": 5743,
      "отдал": 5744,
      "няла": 5745,
      "дипло": 5746,
      "элли": 5747,
      "ченных": 5748,
      "типа": 5749,
      "гим": 5750,
      "наружу": 5751,
      "господ": 5752,
      "воле": 5753,
      "лорд": 5754,
      "полный": 5755,
      "носом": 5756,
      "имели": 5757,
      "распростра": 5758,
      "спаса": 5759,
      "дерева": 5760,
      "ужаса": 5761,
      "правил": 5762,
      "подготов": 5763,
      "приближа": 5764,
      "оль": 5765,
      "вился": 5766,
      "патро": 5767,
      "стрел": 5768,
      "электри": 5769,
      "император": 5770,
      "скажет": 5771,
      "нала": 5772,
      "стами": 5773,
      "осла": 5774,
      "ca": 5775,
      "роли": 5776,
      "лор": 5777,
      "ough": 5778,
      "забыть": 5779,
      "блей": 5780,
      "предлага": 5781,
      "боялся": 5782,
      "sie": 5783,
      "мут": 5784,
      "менно": 5785,
      "понимаете": 5786,
      "молодого": 5787,
      "главным": 5788,
      "ласко": 5789,
      "ково": 5790,
      "словам": 5791,
      "мура": 5792,
      "учитель": 5793,
      "les": 5794,
      "ченно": 5795,
      "ждении": 5796,
      "рек": 5797,
      "зате": 5798,
      "общества": 5799,
      "iii": 5800,
      "тун": 5801,
      "одежду": 5802,
      "труп": 5803,
      "заказ": 5804,
      "значительно": 5805,
      "пуле": 5806,
      "девять": 5807,
      "шала": 5808,
      "читься": 5809,
      "юр": 5810,
      "миха": 5811,
      "кресла": 5812,
      "лья": 5813,
      "правительство": 5814,
      "скорость": 5815,
      "зажи": 5816,
      "белые": 5817,
      "размышля": 5818,
      "вия": 5819,
      "голов": 5820,
      "could": 5821,
      "диться": 5822,
      "нел": 5823,
      "васили": 5824,
      "вытащил": 5825,
      "лаборато": 5826,
      "линии": 5827,
      "столу": 5828,
      "согласно": 5829,
      "нди": 5830,
      "мам": 5831,
      "толпа": 5832,
      "глубине": 5833,
      "ложить": 5834,
      "специали": 5835,
      "далась": 5836,
      "тием": 5837,
      "принимать": 5838,
      "энергии": 5839,
      "град": 5840,
      "территории": 5841,
      "носит": 5842,
      "фра": 5843,
      "ког": 5844,
      "коротко": 5845,
      "информации": 5846,
      "ленной": 5847,
      "думаете": 5848,
      "убийство": 5849,
      "махи": 5850,
      "бабу": 5851,
      "говоришь": 5852,
      "живой": 5853,
      "дые": 5854,
      "ющему": 5855,
      "бус": 5856,
      "ологи": 5857,
      "мил": 5858,
      "странное": 5859,
      "тимо": 5860,
      "поднялась": 5861,
      "ресто": 5862,
      "ham": 5863,
      "вее": 5864,
      "оставаться": 5865,
      "здорово": 5866,
      "побле": 5867,
      "отдыха": 5868,
      "заж": 5869,
      "каждом": 5870,
      "марта": 5871,
      "адво": 5872,
      "метро": 5873,
      "риск": 5874,
      "упомина": 5875,
      "прыгнул": 5876,
      "кас": 5877,
      "гип": 5878,
      "благодар": 5879,
      "организ": 5880,
      "назвать": 5881,
      "делся": 5882,
      "дворец": 5883,
      "чрезвы": 5884,
      "під": 5885,
      "заранее": 5886,
      "устал": 5887,
      "разбу": 5888,
      "сложно": 5889,
      "мета": 5890,
      "гостей": 5891,
      "полиции": 5892,
      "сверх": 5893,
      "самолет": 5894,
      "реда": 5895,
      "приехал": 5896,
      "толк": 5897,
      "августа": 5898,
      "смеялась": 5899,
      "собесед": 5900,
      "держала": 5901,
      "муже": 5902,
      "продолжа": 5903,
      "вещ": 5904,
      "кусок": 5905,
      "начать": 5906,
      "лову": 5907,
      "беру": 5908,
      "самую": 5909,
      "войск": 5910,
      "наем": 5911,
      "щением": 5912,
      "слабы": 5913,
      "оставив": 5914,
      "рина": 5915,
      "вож": 5916,
      "пойду": 5917,
      "радости": 5918,
      "сталин": 5919,
      "середине": 5920,
      "заставить": 5921,
      "when": 5922,
      "сознания": 5923,
      "нарко": 5924,
      "чета": 5925,
      "сток": 5926,
      "зне": 5927,
      "условиях": 5928,
      "гет": 5929,
      "неле": 5930,
      "дверью": 5931,
      "палец": 5932,
      "передать": 5933,
      "вопросов": 5934,
      "думает": 5935,
      "вошли": 5936,
      "велес": 5937,
      "остановилась": 5938,
      "области": 5939,
      "прям": 5940,
      "тельными": 5941,
      "девчон": 5942,
      "мене": 5943,
      "рев": 5944,
      "цин": 5945,
      "передви": 5946,
      "компле": 5947,
      "владе": 5948,
      "подда": 5949,
      "значение": 5950,
      "ир": 5951,
      "dan": 5952,
      "леген": 5953,
      "афри": 5954,
      "основном": 5955,
      "мино": 5956,
      "бежала": 5957,
      "ваем": 5958,
      "няться": 5959,
      "длинные": 5960,
      "сторонам": 5961,
      "больших": 5962,
      "желания": 5963,
      "отдох": 5964,
      "опе": 5965,
      "вози": 5966,
      "плани": 5967,
      "кает": 5968,
      "переста": 5969,
      "повезло": 5970,
      "арта": 5971,
      "насторо": 5972,
      "хам": 5973,
      "ite": 5974,
      "сравне": 5975,
      "дека": 5976,
      "дождь": 5977,
      "поставле": 5978,
      "рада": 5979,
      "оси": 5980,
      "добраться": 5981,
      "преодоле": 5982,
      "наверно": 5983,
      "автор": 5984,
      "ням": 5985,
      "торопи": 5986,
      "объяви": 5987,
      "аска": 5988,
      "облада": 5989,
      "наступле": 5990,
      "слушай": 5991,
      "альян": 5992,
      "вход": 5993,
      "выле": 5994,
      "остров": 5995,
      "церков": 5996,
      "did": 5997,
      "счастье": 5998,
      "юноша": 5999,
      "жалась": 6000,
      "аресто": 6001,
      "встала": 6002,
      "выходит": 6003,
      "пела": 6004,
      "нька": 6005,
      "оставался": 6006,
      "франции": 6007,
      "простите": 6008,
      "празд": 6009,
      "скажешь": 6010,
      "маленькая": 6011,
      "поверить": 6012,
      "поняли": 6013,
      "москву": 6014,
      "жке": 6015,
      "острова": 6016,
      "sion": 6017,
      "договори": 6018,
      "прошлом": 6019,
      "непоня": 6020,
      "ющем": 6021,
      "шаги": 6022,
      "риско": 6023,
      "распла": 6024,
      "строить": 6025,
      "тилось": 6026,
      "смогла": 6027,
      "пятнадцать": 6028,
      "волос": 6029,
      "целью": 6030,
      "сэ": 6031,
      "нынеш": 6032,
      "edi": 6033,
      "последнего": 6034,
      "британ": 6035,
      "ов": 6036,
      "чести": 6037,
      "алов": 6038,
      "vol": 6039,
      "bir": 6040,
      "тке": 6041,
      "lig": 6042,
      "исте": 6043,
      "провести": 6044,
      "иро": 6045,
      "удовольствием": 6046,
      "пка": 6047,
      "аккуратно": 6048,
      "предназна": 6049,
      "огромные": 6050,
      "следовать": 6051,
      "тью": 6052,
      "тета": 6053,
      "филип": 6054,
      "кате": 6055,
      "жилась": 6056,
      "подож": 6057,
      "бывал": 6058,
      "ногах": 6059,
      "чам": 6060,
      "дий": 6061,
      "швыр": 6062,
      "тится": 6063,
      "последней": 6064,
      "выбор": 6065,
      "жих": 6066,
      "передо": 6067,
      "селе": 6068,
      "наблюдал": 6069,
      "нужда": 6070,
      "вспомнить": 6071,
      "чёр": 6072,
      "империи": 6073,
      "прими": 6074,
      "площади": 6075,
      "ос": 6076,
      "выжи": 6077,
      "крайне": 6078,
      "вдох": 6079,
      "домаш": 6080,
      "подобного": 6081,
      "коп": 6082,
      "стук": 6083,
      "197": 6084,
      "установле": 6085,
      "начи": 6086,
      "помнить": 6087,
      "катастро": 6088,
      "ул": 6089,
      "поступ": 6090,
      "неба": 6091,
      "секрета": 6092,
      "задумался": 6093,
      "погло": 6094,
      "партии": 6095,
      "выпу": 6096,
      "чений": 6097,
      "попробу": 6098,
      "уставился": 6099,
      "курс": 6100,
      "поту": 6101,
      "монасты": 6102,
      "лив": 6103,
      "полз": 6104,
      "гнев": 6105,
      "рщи": 6106,
      "кажу": 6107,
      "лошадей": 6108,
      "причина": 6109,
      "взрыв": 6110,
      "понятия": 6111,
      "счастью": 6112,
      "будущее": 6113,
      "темпера": 6114,
      "dy": 6115,
      "принес": 6116,
      "доноси": 6117,
      "лежали": 6118,
      "сью": 6119,
      "сообра": 6120,
      "выполне": 6121,
      "заниматься": 6122,
      "деревья": 6123,
      "копи": 6124,
      "зрели": 6125,
      "церкви": 6126,
      "ньи": 6127,
      "50": 6128,
      "ленд": 6129,
      "иску": 6130,
      "лаз": 6131,
      "видне": 6132,
      "ry": 6133,
      "its": 6134,
      "нек": 6135,
      "кови": 6136,
      "ведет": 6137,
      "поддерж": 6138,
      "информацию": 6139,
      "gu": 6140,
      "кровать": 6141,
      "извле": 6142,
      "повернулась": 6143,
      "удивленно": 6144,
      "пох": 6145,
      "рена": 6146,
      "ace": 6147,
      "проблем": 6148,
      "двигаться": 6149,
      "провор": 6150,
      "работали": 6151,
      "делы": 6152,
      "лише": 6153,
      "чувствовать": 6154,
      "сена": 6155,
      "персона": 6156,
      "конкре": 6157,
      "дрожа": 6158,
      "экспери": 6159,
      "корабли": 6160,
      "ear": 6161,
      "геор": 6162,
      "туман": 6163,
      "радость": 6164,
      "мата": 6165,
      "взгляда": 6166,
      "уха": 6167,
      "ходы": 6168,
      "гнать": 6169,
      "смотрит": 6170,
      "ip": 6171,
      "огляды": 6172,
      "нешь": 6173,
      "борт": 6174,
      "трени": 6175,
      "вовремя": 6176,
      "руя": 6177,
      "порта": 6178,
      "уверена": 6179,
      "мрачно": 6180,
      "удовлетворе": 6181,
      "заро": 6182,
      "разор": 6183,
      "приклю": 6184,
      "винтов": 6185,
      "бие": 6186,
      "открыла": 6187,
      "кэт": 6188,
      "отчего": 6189,
      "имела": 6190,
      "плат": 6191,
      "хитро": 6192,
      "воинов": 6193,
      "сумасшед": 6194,
      "199": 6195,
      "бывало": 6196,
      "дежур": 6197,
      "вашу": 6198,
      "опустил": 6199,
      "масси": 6200,
      "вскочил": 6201,
      "щиков": 6202,
      "вернул": 6203,
      "рассея": 6204,
      "ченным": 6205,
      "верхов": 6206,
      "второ": 6207,
      "кресле": 6208,
      "машин": 6209,
      "любом": 6210,
      "посети": 6211,
      "готова": 6212,
      "справа": 6213,
      "действий": 6214,
      "int": 6215,
      "жид": 6216,
      "скали": 6217,
      "ёз": 6218,
      "брови": 6219,
      "fic": 6220,
      "соли": 6221,
      "проверя": 6222,
      "pol": 6223,
      "поду": 6224,
      "cha": 6225,
      "się": 6226,
      "звезда": 6227,
      "полном": 6228,
      "прото": 6229,
      "надежды": 6230,
      "удали": 6231,
      "хищ": 6232,
      "атмосфе": 6233,
      "хэм": 6234,
      "англии": 6235,
      "неподвижно": 6236,
      "симпа": 6237,
      "уилл": 6238,
      "чте": 6239,
      "финан": 6240,
      "лос": 6241,
      "штаб": 6242,
      "ченной": 6243,
      "зах": 6244,
      "фов": 6245,
      "заты": 6246,
      "поверхность": 6247,
      "велико": 6248,
      "шало": 6249,
      "совме": 6250,
      "наверх": 6251,
      "черной": 6252,
      "жива": 6253,
      "пытались": 6254,
      "мнению": 6255,
      "макси": 6256,
      "ial": 6257,
      "лах": 6258,
      "следить": 6259,
      "лето": 6260,
      "почте": 6261,
      "удара": 6262,
      "настаи": 6263,
      "мур": 6264,
      "вис": 6265,
      "чью": 6266,
      "сравни": 6267,
      "происходя": 6268,
      "последних": 6269,
      "синя": 6270,
      "наружи": 6271,
      "тихонь": 6272,
      "проверить": 6273,
      "центр": 6274,
      "изобре": 6275,
      "краса": 6276,
      "ушла": 6277,
      "грози": 6278,
      "генри": 6279,
      "операции": 6280,
      "закончил": 6281,
      "вски": 6282,
      "хватает": 6283,
      "снаружи": 6284,
      "лиф": 6285,
      "сдержи": 6286,
      "камни": 6287,
      "оказа": 6288,
      "твою": 6289,
      "литератур": 6290,
      "душно": 6291,
      "председа": 6292,
      "позна": 6293,
      "слышать": 6294,
      "богат": 6295,
      "шанс": 6296,
      "картины": 6297,
      "зат": 6298,
      "точнее": 6299,
      "никуда": 6300,
      "дена": 6301,
      "нио": 6302,
      "дерев": 6303,
      "веру": 6304,
      "дожи": 6305,
      "казался": 6306,
      "париж": 6307,
      "войне": 6308,
      "звон": 6309,
      "иной": 6310,
      "тья": 6311,
      "незнако": 6312,
      "ссу": 6313,
      "увы": 6314,
      "подобные": 6315,
      "охотно": 6316,
      "вие": 6317,
      "поставить": 6318,
      "миллионов": 6319,
      "полчаса": 6320,
      "участие": 6321,
      "los": 6322,
      "поспешно": 6323,
      "входа": 6324,
      "воскре": 6325,
      "раство": 6326,
      "парни": 6327,
      "жену": 6328,
      "стакан": 6329,
      "семья": 6330,
      "настроение": 6331,
      "вру": 6332,
      "духа": 6333,
      "получается": 6334,
      "снима": 6335,
      "настой": 6336,
      "няется": 6337,
      "относительно": 6338,
      "льным": 6339,
      "лома": 6340,
      "слове": 6341,
      "планы": 6342,
      "карми": 6343,
      "банди": 6344,
      "тему": 6345,
      "ответственно": 6346,
      "бург": 6347,
      "проблема": 6348,
      "очу": 6349,
      "запол": 6350,
      "мною": 6351,
      "стили": 6352,
      "принцесса": 6353,
      "проявля": 6354,
      "подобное": 6355,
      "ници": 6356,
      "пада": 6357,
      "бак": 6358,
      "старика": 6359,
      "зация": 6360,
      "бежали": 6361,
      "шам": 6362,
      "ждает": 6363,
      "bl": 6364,
      "гиб": 6365,
      "заметить": 6366,
      "соста": 6367,
      "проще": 6368,
      "спал": 6369,
      "pas": 6370,
      "поцело": 6371,
      "суде": 6372,
      "едино": 6373,
      "подобных": 6374,
      "единственное": 6375,
      "дверей": 6376,
      "тельница": 6377,
      "чудес": 6378,
      "провод": 6379,
      "праве": 6380,
      "альную": 6381,
      "комби": 6382,
      "отврати": 6383,
      "удержи": 6384,
      "остановить": 6385,
      "молоде": 6386,
      "квартиру": 6387,
      "несу": 6388,
      "взяли": 6389,
      "коричне": 6390,
      "тиана": 6391,
      "означает": 6392,
      "смогли": 6393,
      "повернул": 6394,
      "кса": 6395,
      "ноя": 6396,
      "таться": 6397,
      "рассмеялся": 6398,
      "mad": 6399,
      "допол": 6400,
      "оре": 6401,
      "океан": 6402,
      "устреми": 6403,
      "вторая": 6404,
      "cie": 6405,
      "вслух": 6406,
      "ако": 6407,
      "чудовищ": 6408,
      "хли": 6409,
      "маленькой": 6410,
      "чинов": 6411,
      "сосе": 6412,
      "надежда": 6413,
      "воспита": 6414,
      "пронзи": 6415,
      "везде": 6416,
      "врагов": 6417,
      "всякого": 6418,
      "мальчика": 6419,
      "mis": 6420,
      "ствовала": 6421,
      "здание": 6422,
      "22": 6423,
      "more": 6424,
      "доставля": 6425,
      "каждое": 6426,
      "лью": 6427,
      "дрогнул": 6428,
      "пальцев": 6429,
      "подробно": 6430,
      "стный": 6431,
      "дочери": 6432,
      "бедня": 6433,
      "любого": 6434,
      "дента": 6435,
      "приводи": 6436,
      "симорен": 6437,
      "сержант": 6438,
      "первом": 6439,
      "вий": 6440,
      "молит": 6441,
      "быст": 6442,
      "wa": 6443,
      "ance": 6444,
      "ито": 6445,
      "приним": 6446,
      "скон": 6447,
      "фигура": 6448,
      "каре": 6449,
      "веще": 6450,
      "умереть": 6451,
      "стной": 6452,
      "can": 6453,
      "скажем": 6454,
      "ваете": 6455,
      "дядя": 6456,
      "особо": 6457,
      "мечта": 6458,
      "доктора": 6459,
      "тилле": 6460,
      "гнал": 6461,
      "доса": 6462,
      "чают": 6463,
      "имеют": 6464,
      "эрик": 6465,
      "поближе": 6466,
      "рассла": 6467,
      "планет": 6468,
      "дняя": 6469,
      "послу": 6470,
      "тном": 6471,
      "чком": 6472,
      "пишет": 6473,
      "близости": 6474,
      "напрас": 6475,
      "популя": 6476,
      "небес": 6477,
      "лагерь": 6478,
      "последо": 6479,
      "намного": 6480,
      "одинако": 6481,
      "here": 6482,
      "похож": 6483,
      "непременно": 6484,
      "конфе": 6485,
      "даться": 6486,
      "живут": 6487,
      "лле": 6488,
      "убежде": 6489,
      "чувствуя": 6490,
      "китай": 6491,
      "припа": 6492,
      "карман": 6493,
      "волны": 6494,
      "правительства": 6495,
      "нашла": 6496,
      "уны": 6497,
      "какими": 6498,
      "сидит": 6499,
      "согласен": 6500,
      "вежливо": 6501,
      "реза": 6502,
      "слева": 6503,
      "суе": 6504,
      "непосред": 6505,
      "прошептала": 6506,
      "метрах": 6507,
      "помнишь": 6508,
      "фет": 6509,
      "варя": 6510,
      "рождения": 6511,
      "верху": 6512,
      "враг": 6513,
      "разговора": 6514,
      "телом": 6515,
      "надеялся": 6516,
      "бет": 6517,
      "николай": 6518,
      "ny": 6519,
      "подчер": 6520,
      "окра": 6521,
      "плащ": 6522,
      "столо": 6523,
      "артилле": 6524,
      "заканчи": 6525,
      "индей": 6526,
      "ждую": 6527,
      "картину": 6528,
      "знакомый": 6529,
      "домо": 6530,
      "прийти": 6531,
      "питер": 6532,
      "тума": 6533,
      "женным": 6534,
      "погрузи": 6535,
      "ely": 6536,
      "бух": 6537,
      "оружием": 6538,
      "назвал": 6539,
      "впло": 6540,
      "коня": 6541,
      "послал": 6542,
      "лого": 6543,
      "убийства": 6544,
      "долг": 6545,
      "запад": 6546,
      "обору": 6547,
      "апре": 6548,
      "наказа": 6549,
      "сильный": 6550,
      "лиц": 6551,
      "чении": 6552,
      "самим": 6553,
      "ющейся": 6554,
      "лий": 6555,
      "расстоянии": 6556,
      "узнала": 6557,
      "поми": 6558,
      "лету": 6559,
      "значения": 6560,
      "стремительно": 6561,
      "название": 6562,
      "правы": 6563,
      "към": 6564,
      "прох": 6565,
      "вынужден": 6566,
      "нормально": 6567,
      "ło": 6568,
      "автомати": 6569,
      "опла": 6570,
      "начинает": 6571,
      "стрелять": 6572,
      "inter": 6573,
      "маленькие": 6574,
      "ik": 6575,
      "могуще": 6576,
      "23": 6577,
      "цара": 6578,
      "отличие": 6579,
      "компьютер": 6580,
      "движением": 6581,
      "сегодняш": 6582,
      "терро": 6583,
      "пристально": 6584,
      "викто": 6585,
      "откли": 6586,
      "командова": 6587,
      "считает": 6588,
      "христи": 6589,
      "женой": 6590,
      "мить": 6591,
      "каждую": 6592,
      "ушли": 6593,
      "вален": 6594,
      "расти": 6595,
      "карто": 6596,
      "лени": 6597,
      "вернувшись": 6598,
      "сообщение": 6599,
      "убили": 6600,
      "торов": 6601,
      "раке": 6602,
      "тите": 6603,
      "age": 6604,
      "получили": 6605,
      "влады": 6606,
      "ладонь": 6607,
      "утрен": 6608,
      "алексей": 6609,
      "ситуация": 6610,
      "подли": 6611,
      "гул": 6612,
      "целу": 6613,
      "тельств": 6614,
      "гр": 6615,
      "сет": 6616,
      "парня": 6617,
      "уез": 6618,
      "районе": 6619,
      "невы": 6620,
      "дракон": 6621,
      "сило": 6622,
      "алеку": 6623,
      "незаме": 6624,
      "ющегося": 6625,
      "купить": 6626,
      "hu": 6627,
      "пиро": 6628,
      "загадо": 6629,
      "построе": 6630,
      "рун": 6631,
      "выхода": 6632,
      "оско": 6633,
      "сля": 6634,
      "незаметно": 6635,
      "встретил": 6636,
      "период": 6637,
      "зеркало": 6638,
      "верю": 6639,
      "pres": 6640,
      "держали": 6641,
      "iga": 6642,
      "смысла": 6643,
      "суа": 6644,
      "втор": 6645,
      "пойдет": 6646,
      "голь": 6647,
      "кусо": 6648,
      "воины": 6649,
      "min": 6650,
      "самостоя": 6651,
      "заво": 6652,
      "лучи": 6653,
      "дмитри": 6654,
      "сказав": 6655,
      "береж": 6656,
      "грубо": 6657,
      "препят": 6658,
      "раска": 6659,
      "передал": 6660,
      "стого": 6661,
      "замка": 6662,
      "теат": 6663,
      "оти": 6664,
      "стыми": 6665,
      "невероя": 6666,
      "масте": 6667,
      "чудо": 6668,
      "радостно": 6669,
      "исчезла": 6670,
      "вный": 6671,
      "пыталась": 6672,
      "ковых": 6673,
      "вошла": 6674,
      "стул": 6675,
      "ктив": 6676,
      "психоло": 6677,
      "има": 6678,
      "промыш": 6679,
      "отдела": 6680,
      "еду": 6681,
      "эри": 6682,
      "патру": 6683,
      "рана": 6684,
      "чия": 6685,
      "дыма": 6686,
      "вности": 6687,
      "ада": 6688,
      "понимая": 6689,
      "вене": 6690,
      "проведе": 6691,
      "большей": 6692,
      "пускать": 6693,
      "деятельности": 6694,
      "положении": 6695,
      "правила": 6696,
      "пустили": 6697,
      "поисках": 6698,
      "сып": 6699,
      "льки": 6700,
      "выдох": 6701,
      "инспе": 6702,
      "len": 6703,
      "товой": 6704,
      "бегу": 6705,
      "ble": 6706,
      "щер": 6707,
      "will": 6708,
      "необходимости": 6709,
      "щихся": 6710,
      "ногой": 6711,
      "срок": 6712,
      "hn": 6713,
      "остановились": 6714,
      "женная": 6715,
      "миру": 6716,
      "называется": 6717,
      "хау": 6718,
      "тес": 6719,
      "нившись": 6720,
      "мян": 6721,
      "may": 6722,
      "взры": 6723,
      "недолго": 6724,
      "опустился": 6725,
      "бесполез": 6726,
      "звездо": 6727,
      "газеты": 6728,
      "стие": 6729,
      "старые": 6730,
      "люк": 6731,
      "исключительно": 6732,
      "кармана": 6733,
      "подняться": 6734,
      "og": 6735,
      "грэ": 6736,
      "чье": 6737,
      "осозна": 6738,
      "преимуще": 6739,
      "слад": 6740,
      "подтвердил": 6741,
      "гале": 6742,
      "риса": 6743,
      "хнула": 6744,
      "решить": 6745,
      "государства": 6746,
      "старой": 6747,
      "сидень": 6748,
      "сыгра": 6749,
      "ани": 6750,
      "дорого": 6751,
      "книга": 6752,
      "швей": 6753,
      "била": 6754,
      "вашему": 6755,
      "разочарова": 6756,
      "убежи": 6757,
      "век": 6758,
      "бера": 6759,
      "белой": 6760,
      "земель": 6761,
      "know": 6762,
      "стным": 6763,
      "спле": 6764,
      "уничтожить": 6765,
      "фиоле": 6766,
      "надое": 6767,
      "женного": 6768,
      "выклю": 6769,
      "жились": 6770,
      "делаешь": 6771,
      "европей": 6772,
      "льда": 6773,
      "has": 6774,
      "гин": 6775,
      "комната": 6776,
      "равнове": 6777,
      "свали": 6778,
      "бр": 6779,
      "бка": 6780,
      "облегче": 6781,
      "self": 6782,
      "упала": 6783,
      "товарища": 6784,
      "неизбе": 6785,
      "молчала": 6786,
      "арти": 6787,
      "находилась": 6788,
      "англича": 6789,
      "шумно": 6790,
      "комисса": 6791,
      "карма": 6792,
      "часо": 6793,
      "идут": 6794,
      "остальное": 6795,
      "недоволь": 6796,
      "капита": 6797,
      "справедливо": 6798,
      "жре": 6799,
      "сиде": 6800,
      "брон": 6801,
      "кабинете": 6802,
      "фрон": 6803,
      "невероятно": 6804,
      "помещение": 6805,
      "вещь": 6806,
      "лог": 6807,
      "пламя": 6808,
      "сверка": 6809,
      "закри": 6810,
      "черного": 6811,
      "кольцо": 6812,
      "сали": 6813,
      "коллек": 6814,
      "свида": 6815,
      "over": 6816,
      "правой": 6817,
      "любя": 6818,
      "увеличи": 6819,
      "нею": 6820,
      "франсуа": 6821,
      "вающий": 6822,
      "простой": 6823,
      "выяснить": 6824,
      "воспоминания": 6825,
      "главе": 6826,
      "ствующих": 6827,
      "cu": 6828,
      "ster": 6829,
      "происходило": 6830,
      "несет": 6831,
      "водитель": 6832,
      "sin": 6833,
      "удовольствие": 6834,
      "попыталась": 6835,
      "подой": 6836,
      "неподалеку": 6837,
      "менять": 6838,
      "глад": 6839,
      "вещей": 6840,
      "школы": 6841,
      "сі": 6842,
      "поток": 6843,
      "билл": 6844,
      "хму": 6845,
      "тившись": 6846,
      "началу": 6847,
      "греб": 6848,
      "русских": 6849,
      "понимать": 6850,
      "будучи": 6851,
      "люци": 6852,
      "появилось": 6853,
      "иностра": 6854,
      "христя": 6855,
      "демонстри": 6856,
      "идем": 6857,
      "щалась": 6858,
      "какво": 6859,
      "кварт": 6860,
      "судьбы": 6861,
      "chi": 6862,
      "эми": 6863,
      "хороше": 6864,
      "заметив": 6865,
      "королевы": 6866,
      "правды": 6867,
      "ныр": 6868,
      "саша": 6869,
      "лопа": 6870,
      "тывая": 6871,
      "jak": 6872,
      "ровки": 6873,
      "прико": 6874,
      "темные": 6875,
      "некогда": 6876,
      "дерево": 6877,
      "отправиться": 6878,
      "поворачи": 6879,
      "кафе": 6880,
      "тоне": 6881,
      "способно": 6882,
      "двенадцать": 6883,
      "уважа": 6884,
      "кожи": 6885,
      "хор": 6886,
      "заби": 6887,
      "германии": 6888,
      "положи": 6889,
      "лили": 6890,
      "документы": 6891,
      "меры": 6892,
      "буль": 6893,
      "творя": 6894,
      "коля": 6895,
      "дорогая": 6896,
      "фом": 6897,
      "система": 6898,
      "сцена": 6899,
      "догады": 6900,
      "недалеко": 6901,
      "чин": 6902,
      "природы": 6903,
      "cre": 6904,
      "дельно": 6905,
      "отню": 6906,
      "изма": 6907,
      "тури": 6908,
      "совершен": 6909,
      "собирается": 6910,
      "взрослы": 6911,
      "отнюдь": 6912,
      "ця": 6913,
      "кристал": 6914,
      "отцом": 6915,
      "отцу": 6916,
      "военных": 6917,
      "wi": 6918,
      "настоящему": 6919,
      "сур": 6920,
      "отношении": 6921,
      "fore": 6922,
      "восьми": 6923,
      "отдать": 6924,
      "здрав": 6925,
      "услышав": 6926,
      "чению": 6927,
      "сны": 6928,
      "проро": 6929,
      "стекла": 6930,
      "президент": 6931,
      "брига": 6932,
      "причине": 6933,
      "держит": 6934,
      "sen": 6935,
      "запас": 6936,
      "жат": 6937,
      "ленин": 6938,
      "готовить": 6939,
      "бега": 6940,
      "плотно": 6941,
      "словах": 6942,
      "озера": 6943,
      "ces": 6944,
      "чемо": 6945,
      "кругом": 6946,
      "саду": 6947,
      "резал": 6948,
      "февра": 6949,
      "обруши": 6950,
      "гг": 6951,
      "кисло": 6952,
      "рези": 6953,
      "талант": 6954,
      "ковые": 6955,
      "приказы": 6956,
      "лови": 6957,
      "летов": 6958,
      "пая": 6959,
      "худ": 6960,
      "начальника": 6961,
      "лиши": 6962,
      "хая": 6963,
      "трудни": 6964,
      "лее": 6965,
      "процен": 6966,
      "войти": 6967,
      "безна": 6968,
      "гивая": 6969,
      "ale": 6970,
      "мю": 6971,
      "time": 6972,
      "чев": 6973,
      "будьте": 6974,
      "мость": 6975,
      "mer": 6976,
      "массо": 6977,
      "скрыть": 6978,
      "армия": 6979,
      "фронта": 6980,
      "сбор": 6981,
      "любила": 6982,
      "don": 6983,
      "тормо": 6984,
      "штаба": 6985,
      "расстояние": 6986,
      "привести": 6987,
      "ku": 6988,
      "бродя": 6989,
      "крово": 6990,
      "вашим": 6991,
      "разделе": 6992,
      "сообщить": 6993,
      "делают": 6994,
      "арте": 6995,
      "искренне": 6996,
      "гнула": 6997,
      "кав": 6998,
      "свидетель": 6999,
      "пост": 7000,
      "мели": 7001,
      "ali": 7002,
      "кури": 7003,
      "подхва": 7004,
      "сала": 7005,
      "продолжать": 7006,
      "осущест": 7007,
      "ana": 7008,
      "adi": 7009,
      "дную": 7010,
      "убра": 7011,
      "достиг": 7012,
      "сперва": 7013,
      "опро": 7014,
      "объек": 7015,
      "тался": 7016,
      "зм": 7017,
      "тще": 7018,
      "вси": 7019,
      "нати": 7020,
      "подвод": 7021,
      "красной": 7022,
      "искал": 7023,
      "чарли": 7024,
      "ваны": 7025,
      "процесс": 7026,
      "уси": 7027,
      "слыши": 7028,
      "одежды": 7029,
      "вная": 7030,
      "нав": 7031,
      "взаимо": 7032,
      "психи": 7033,
      "накры": 7034,
      "ступень": 7035,
      "всяких": 7036,
      "причины": 7037,
      "определить": 7038,
      "дзи": 7039,
      "даром": 7040,
      "единственным": 7041,
      "вому": 7042,
      "аэро": 7043,
      "разом": 7044,
      "премье": 7045,
      "дернул": 7046,
      "услышать": 7047,
      "порту": 7048,
      "убивать": 7049,
      "лететь": 7050,
      "ступает": 7051,
      "жителей": 7052,
      "настоящее": 7053,
      "собственного": 7054,
      "истреби": 7055,
      "жнее": 7056,
      "прислуши": 7057,
      "костюм": 7058,
      "золотой": 7059,
      "позволь": 7060,
      "old": 7061,
      "пожа": 7062,
      "толку": 7063,
      "объявил": 7064,
      "родители": 7065,
      "фоне": 7066,
      "последу": 7067,
      "дважды": 7068,
      "доступ": 7069,
      "qil": 7070,
      "рол": 7071,
      "большом": 7072,
      "ственная": 7073,
      "камня": 7074,
      "неф": 7075,
      "фрэн": 7076,
      "твоих": 7077,
      "поды": 7078,
      "итальян": 7079,
      "хвост": 7080,
      "склады": 7081,
      "позднее": 7082,
      "раско": 7083,
      "зверь": 7084,
      "вете": 7085,
      "ць": 7086,
      "судно": 7087,
      "сигнал": 7088,
      "следующее": 7089,
      "обезья": 7090,
      "артур": 7091,
      "рель": 7092,
      "прибо": 7093,
      "кораблей": 7094,
      "генерала": 7095,
      "вильгель": 7096,
      "непонятно": 7097,
      "графа": 7098,
      "величай": 7099,
      "поднять": 7100,
      "dem": 7101,
      "каждая": 7102,
      "создать": 7103,
      "мадам": 7104,
      "велел": 7105,
      "посовето": 7106,
      "шеф": 7107,
      "казалась": 7108,
      "герои": 7109,
      "ked": 7110,
      "ожидая": 7111,
      "соору": 7112,
      "условия": 7113,
      "желал": 7114,
      "отказался": 7115,
      "агент": 7116,
      "24": 7117,
      "опаса": 7118,
      "жители": 7119,
      "сками": 7120,
      "art": 7121,
      "срочно": 7122,
      "вопло": 7123,
      "ставили": 7124,
      "щиеся": 7125,
      "странный": 7126,
      "кардина": 7127,
      "pt": 7128,
      "расследова": 7129,
      "195": 7130,
      "снаря": 7131,
      "сходи": 7132,
      "веща": 7133,
      "дюжи": 7134,
      "понимала": 7135,
      "27": 7136,
      "повери": 7137,
      "пушки": 7138,
      "нило": 7139,
      "умоля": 7140,
      "взглянула": 7141,
      "стив": 7142,
      "гии": 7143,
      "сень": 7144,
      "суль": 7145,
      "low": 7146,
      "союза": 7147,
      "поможет": 7148,
      "чужо": 7149,
      "никах": 7150,
      "отво": 7151,
      "жиль": 7152,
      "езда": 7153,
      "оставили": 7154,
      "улыбаясь": 7155,
      "льная": 7156,
      "щики": 7157,
      "гало": 7158,
      "деше": 7159,
      "реб": 7160,
      "ване": 7161,
      "сестры": 7162,
      "пыли": 7163,
      "шной": 7164,
      "равни": 7165,
      "окажется": 7166,
      "бас": 7167,
      "выпрями": 7168,
      "чувств": 7169,
      "базе": 7170,
      "телефону": 7171,
      "рассказывать": 7172,
      "пожар": 7173,
      "растя": 7174,
      "класс": 7175,
      "лондон": 7176,
      "команды": 7177,
      "администра": 7178,
      "щенный": 7179,
      "позволить": 7180,
      "льное": 7181,
      "присутствие": 7182,
      "осме": 7183,
      "вторых": 7184,
      "картина": 7185,
      "родной": 7186,
      "new": 7187,
      "развед": 7188,
      "немся": 7189,
      "дрей": 7190,
      "колон": 7191,
      "пети": 7192,
      "штей": 7193,
      "немцы": 7194,
      "гроб": 7195,
      "борту": 7196,
      "ft": 7197,
      "раны": 7198,
      "скочила": 7199,
      "протянула": 7200,
      "подзем": 7201,
      "обор": 7202,
      "черных": 7203,
      "вело": 7204,
      "летели": 7205,
      "синд": 7206,
      "герцог": 7207,
      "дора": 7208,
      "музыка": 7209,
      "окре": 7210,
      "изы": 7211,
      "четверо": 7212,
      "боевой": 7213,
      "ванию": 7214,
      "позиции": 7215,
      "игро": 7216,
      "добрый": 7217,
      "рки": 7218,
      "короче": 7219,
      "рования": 7220,
      "путем": 7221,
      "снове": 7222,
      "оборудова": 7223,
      "аму": 7224,
      "квадра": 7225,
      "така": 7226,
      "испа": 7227,
      "остановил": 7228,
      "употре": 7229,
      "сине": 7230,
      "учили": 7231,
      "синь": 7232,
      "широков": 7233,
      "советского": 7234,
      "узнали": 7235,
      "народу": 7236,
      "wy": 7237,
      "высокой": 7238,
      "лагеря": 7239,
      "bor": 7240,
      "фре": 7241,
      "заметили": 7242,
      "считали": 7243,
      "огор": 7244,
      "пами": 7245,
      "одежда": 7246,
      "взгляды": 7247,
      "встретиться": 7248,
      "челю": 7249,
      "см": 7250,
      "тями": 7251,
      "получится": 7252,
      "варе": 7253,
      "жном": 7254,
      "благодарю": 7255,
      "механиз": 7256,
      "ваний": 7257,
      "признался": 7258,
      "нара": 7259,
      "хота": 7260,
      "вьте": 7261,
      "аген": 7262,
      "нахмурился": 7263,
      "ba": 7264,
      "нулось": 7265,
      "последнюю": 7266,
      "успешно": 7267,
      "русские": 7268,
      "повсюду": 7269,
      "собираюсь": 7270,
      "спя": 7271,
      "гаран": 7272,
      "атаку": 7273,
      "встать": 7274,
      "боти": 7275,
      "сбо": 7276,
      "зоне": 7277,
      "бывший": 7278,
      "джонни": 7279,
      "украше": 7280,
      "замуж": 7281,
      "сесть": 7282,
      "становилось": 7283,
      "попытки": 7284,
      "посвя": 7285,
      "пояснил": 7286,
      "заки": 7287,
      "зель": 7288,
      "упомя": 7289,
      "красный": 7290,
      "магии": 7291,
      "вернется": 7292,
      "хей": 7293,
      "тос": 7294,
      "сят": 7295,
      "тридцати": 7296,
      "книг": 7297,
      "нём": 7298,
      "извини": 7299,
      "вытя": 7300,
      "вуль": 7301,
      "случаях": 7302,
      "впи": 7303,
      "остатки": 7304,
      "школе": 7305,
      "возника": 7306,
      "предпола": 7307,
      "убь": 7308,
      "ула": 7309,
      "квартире": 7310,
      "искусства": 7311,
      "разглядеть": 7312,
      "исчезли": 7313,
      "успока": 7314,
      "отсутствие": 7315,
      "скала": 7316,
      "21": 7317,
      "звали": 7318,
      "грузови": 7319,
      "общего": 7320,
      "связы": 7321,
      "спит": 7322,
      "поэ": 7323,
      "into": 7324,
      "проговорила": 7325,
      "фут": 7326,
      "секунды": 7327,
      "тома": 7328,
      "cas": 7329,
      "ждой": 7330,
      "карту": 7331,
      "гео": 7332,
      "пустя": 7333,
      "алекс": 7334,
      "снять": 7335,
      "погла": 7336,
      "ste": 7337,
      "автомат": 7338,
      "явился": 7339,
      "риться": 7340,
      "рыча": 7341,
      "толкнул": 7342,
      "главного": 7343,
      "примеру": 7344,
      "ливый": 7345,
      "щенно": 7346,
      "mil": 7347,
      "icht": 7348,
      "число": 7349,
      "зма": 7350,
      "сном": 7351,
      "алексан": 7352,
      "прервал": 7353,
      "чник": 7354,
      "огромной": 7355,
      "костя": 7356,
      "мото": 7357,
      "няма": 7358,
      "рыми": 7359,
      "целую": 7360,
      "муд": 7361,
      "метр": 7362,
      "189": 7363,
      "ченного": 7364,
      "мучи": 7365,
      "стану": 7366,
      "общество": 7367,
      "изящ": 7368,
      "хих": 7369,
      "дилось": 7370,
      "жное": 7371,
      "князя": 7372,
      "кога": 7373,
      "волна": 7374,
      "ін": 7375,
      "жестом": 7376,
      "тика": 7377,
      "адмирал": 7378,
      "посме": 7379,
      "распола": 7380,
      "просить": 7381,
      "190": 7382,
      "нении": 7383,
      "толпы": 7384,
      "хорошего": 7385,
      "членов": 7386,
      "посмотрим": 7387,
      "емой": 7388,
      "атак": 7389,
      "нигде": 7390,
      "ger": 7391,
      "губ": 7392,
      "ложи": 7393,
      "помните": 7394,
      "мыслей": 7395,
      "победи": 7396,
      "нашему": 7397,
      "уна": 7398,
      "месту": 7399,
      "отчаянно": 7400,
      "пові": 7401,
      "владель": 7402,
      "изну": 7403,
      "предста": 7404,
      "силами": 7405,
      "рога": 7406,
      "форд": 7407,
      "мит": 7408,
      "биться": 7409,
      "расста": 7410,
      "предла": 7411,
      "чее": 7412,
      "car": 7413,
      "day": 7414,
      "отдале": 7415,
      "смело": 7416,
      "серде": 7417,
      "полиция": 7418,
      "выглядит": 7419,
      "аки": 7420,
      "sta": 7421,
      "мони": 7422,
      "семье": 7423,
      "астро": 7424,
      "тё": 7425,
      "ножи": 7426,
      "положения": 7427,
      "нача": 7428,
      "огнем": 7429,
      "боб": 7430,
      "поп": 7431,
      "русский": 7432,
      "мле": 7433,
      "данные": 7434,
      "вздрог": 7435,
      "скаль": 7436,
      "ions": 7437,
      "кожу": 7438,
      "состав": 7439,
      "наблюдать": 7440,
      "река": 7441,
      "молодых": 7442,
      "qo": 7443,
      "клы": 7444,
      "убийца": 7445,
      "своё": 7446,
      "происхо": 7447,
      "организации": 7448,
      "вность": 7449,
      "ru": 7450,
      "зти": 7451,
      "ану": 7452,
      "фур": 7453,
      "телеви": 7454,
      "наверху": 7455,
      "28": 7456,
      "мм": 7457,
      "покрас": 7458,
      "маски": 7459,
      "способности": 7460,
      "экран": 7461,
      "богов": 7462,
      "предмет": 7463,
      "сможем": 7464,
      "маршал": 7465,
      "ple": 7466,
      "домов": 7467,
      "полное": 7468,
      "адрес": 7469,
      "ds": 7470,
      "наступи": 7471,
      "проек": 7472,
      "покачала": 7473,
      "одобри": 7474,
      "услышала": 7475,
      "ковать": 7476,
      "старая": 7477,
      "писи": 7478,
      "флин": 7479,
      "длинный": 7480,
      "чрезвычайно": 7481,
      "позвонил": 7482,
      "стоят": 7483,
      "террори": 7484,
      "вающие": 7485,
      "than": 7486,
      "even": 7487,
      "белых": 7488,
      "беспомощ": 7489,
      "изуче": 7490,
      "прошлого": 7491,
      "пун": 7492,
      "26": 7493,
      "лох": 7494,
      "глот": 7495,
      "коре": 7496,
      "общи": 7497,
      "покор": 7498,
      "началась": 7499,
      "ical": 7500,
      "сказано": 7501,
      "образу": 7502,
      "ощутил": 7503,
      "задача": 7504,
      "нале": 7505,
      "давал": 7506,
      "прочим": 7507,
      "вышло": 7508,
      "мистера": 7509,
      "жности": 7510,
      "встрево": 7511,
      "морской": 7512,
      "упре": 7513,
      "успех": 7514,
      "рив": 7515,
      "приста": 7516,
      "пакс": 7517,
      "каждому": 7518,
      "стные": 7519,
      "gre": 7520,
      "лке": 7521,
      "лии": 7522,
      "завое": 7523,
      "стье": 7524,
      "землей": 7525,
      "ванной": 7526,
      "ключи": 7527,
      "покинуть": 7528,
      "стьян": 7529,
      "концу": 7530,
      "ющимся": 7531,
      "руж": 7532,
      "подра": 7533,
      "эп": 7534,
      "сопер": 7535,
      "понимает": 7536,
      "поведение": 7537,
      "ири": 7538,
      "траги": 7539,
      "реме": 7540,
      "испор": 7541,
      "морщи": 7542,
      "пин": 7543,
      "оп": 7544,
      "угла": 7545,
      "tre": 7546,
      "двинул": 7547,
      "зубами": 7548,
      "робер": 7549,
      "хорошая": 7550,
      "предполага": 7551,
      "стекло": 7552,
      "гене": 7553,
      "ствий": 7554,
      "ure": 7555,
      "черная": 7556,
      "экс": 7557,
      "кухню": 7558,
      "блок": 7559,
      "берет": 7560,
      "емым": 7561,
      "поиски": 7562,
      "нажал": 7563,
      "правило": 7564,
      "циях": 7565,
      "вызвать": 7566,
      "вцепи": 7567,
      "близи": 7568,
      "ations": 7569,
      "ама": 7570,
      "служить": 7571,
      "борьбы": 7572,
      "муа": 7573,
      "матер": 7574,
      "возвы": 7575,
      "водить": 7576,
      "развития": 7577,
      "ели": 7578,
      "рел": 7579,
      "высокого": 7580,
      "олег": 7581,
      "нялся": 7582,
      "двести": 7583,
      "бюро": 7584,
      "ючи": 7585,
      "вдо": 7586,
      "тяж": 7587,
      "воспользоваться": 7588,
      "ночной": 7589,
      "предстояло": 7590,
      "бл": 7591,
      "ire": 7592,
      "рите": 7593,
      "началось": 7594,
      "фф": 7595,
      "здеш": 7596,
      "скоростью": 7597,
      "хами": 7598,
      "именем": 7599,
      "луна": 7600,
      "пороге": 7601,
      "вздрогнул": 7602,
      "mas": 7603,
      "игорь": 7604,
      "черты": 7605,
      "господина": 7606,
      "gar": 7607,
      "рона": 7608,
      "результат": 7609,
      "восток": 7610,
      "июля": 7611,
      "мыми": 7612,
      "перестал": 7613,
      "склад": 7614,
      "лепе": 7615,
      "выпи": 7616,
      "вязы": 7617,
      "заседа": 7618,
      "port": 7619,
      "пели": 7620,
      "хие": 7621,
      "приняли": 7622,
      "чёт": 7623,
      "ject": 7624,
      "военно": 7625,
      "испан": 7626,
      "спас": 7627,
      "мала": 7628,
      "езд": 7629,
      "заблу": 7630,
      "жными": 7631,
      "считаю": 7632,
      "сохранить": 7633,
      "надеяться": 7634,
      "бота": 7635,
      "борода": 7636,
      "побереж": 7637,
      "hand": 7638,
      "кнуть": 7639,
      "коз": 7640,
      "плеч": 7641,
      "фаши": 7642,
      "белого": 7643,
      "тору": 7644,
      "носа": 7645,
      "щика": 7646,
      "щается": 7647,
      "определя": 7648,
      "контроли": 7649,
      "сті": 7650,
      "заведе": 7651,
      "представлял": 7652,
      "ящик": 7653,
      "пламени": 7654,
      "институ": 7655,
      "див": 7656,
      "убира": 7657,
      "потребу": 7658,
      "демокра": 7659,
      "революцион": 7660,
      "тишь": 7661,
      "обуче": 7662,
      "враже": 7663,
      "карты": 7664,
      "ждут": 7665,
      "ярости": 7666,
      "играли": 7667,
      "предстоит": 7668,
      "двинулись": 7669,
      "рукоя": 7670,
      "сент": 7671,
      "пости": 7672,
      "ктором": 7673,
      "ile": 7674,
      "третьего": 7675,
      "аристо": 7676,
      "следил": 7677,
      "странным": 7678,
      "ful": 7679,
      "ларри": 7680,
      "нтов": 7681,
      "конвер": 7682,
      "показался": 7683,
      "павел": 7684,
      "cy": 7685,
      "руют": 7686,
      "рыба": 7687,
      "девочки": 7688,
      "сентября": 7689,
      "ошиба": 7690,
      "заняться": 7691,
      "планете": 7692,
      "капі": 7693,
      "прибыл": 7694,
      "восстанови": 7695,
      "40": 7696,
      "принадлежит": 7697,
      "lie": 7698,
      "оглу": 7699,
      "герцоги": 7700,
      "then": 7701,
      "zi": 7702,
      "рились": 7703,
      "киды": 7704,
      "дворца": 7705,
      "mat": 7706,
      "сокра": 7707,
      "стели": 7708,
      "тором": 7709,
      "будущем": 7710,
      "обязан": 7711,
      "още": 7712,
      "нялись": 7713,
      "усы": 7714,
      "бага": 7715,
      "ано": 7716,
      "ухва": 7717,
      "орал": 7718,
      "парт": 7719,
      "auf": 7720,
      "сообраз": 7721,
      "различных": 7722,
      "гни": 7723,
      "кроше": 7724,
      "великой": 7725,
      "раски": 7726,
      "сокрови": 7727,
      "функ": 7728,
      "художе": 7729,
      "юль": 7730,
      "пуще": 7731,
      "обратил": 7732,
      "глупы": 7733,
      "продук": 7734,
      "тирова": 7735,
      "прояви": 7736,
      "последова": 7737,
      "ребят": 7738,
      "осматри": 7739,
      "табу": 7740,
      "ждем": 7741,
      "огромное": 7742,
      "сомневался": 7743,
      "пустила": 7744,
      "теп": 7745,
      "льную": 7746,
      "ряду": 7747,
      "извините": 7748,
      "зис": 7749,
      "спуск": 7750,
      "злове": 7751,
      "капли": 7752,
      "разры": 7753,
      "старше": 7754,
      "занимался": 7755,
      "ved": 7756,
      "пай": 7757,
      "существу": 7758,
      "забира": 7759,
      "доне": 7760,
      "слуги": 7761,
      "шагом": 7762,
      "гресси": 7763,
      "cent": 7764,
      "уют": 7765,
      "студен": 7766,
      "подняв": 7767,
      "немноги": 7768,
      "тав": 7769,
      "границы": 7770,
      "скот": 7771,
      "слухи": 7772,
      "казались": 7773,
      "вони": 7774,
      "свободу": 7775,
      "очарова": 7776,
      "муску": 7777,
      "доволен": 7778,
      "последовал": 7779,
      "циями": 7780,
      "хозяи": 7781,
      "прошлое": 7782,
      "вашем": 7783,
      "москвы": 7784,
      "аном": 7785,
      "ниш": 7786,
      "возраста": 7787,
      "удавалось": 7788,
      "собрались": 7789,
      "sur": 7790,
      "сможешь": 7791,
      "открылась": 7792,
      "wie": 7793,
      "пова": 7794,
      "преды": 7795,
      "писала": 7796,
      "разобраться": 7797,
      "обрадо": 7798,
      "молодая": 7799,
      "вспомнила": 7800,
      "реги": 7801,
      "ель": 7802,
      "революции": 7803,
      "że": 7804,
      "село": 7805,
      "изм": 7806,
      "постель": 7807,
      "облом": 7808,
      "заболе": 7809,
      "люд": 7810,
      "ард": 7811,
      "работала": 7812,
      "нервно": 7813,
      "соответству": 7814,
      "синдзи": 7815,
      "29": 7816,
      "coun": 7817,
      "топ": 7818,
      "члены": 7819,
      "проснулся": 7820,
      "развали": 7821,
      "фибен": 7822,
      "смертью": 7823,
      "джордж": 7824,
      "выро": 7825,
      "носили": 7826,
      "выве": 7827,
      "ходов": 7828,
      "организо": 7829,
      "поспешил": 7830,
      "претен": 7831,
      "чность": 7832,
      "подал": 7833,
      "герой": 7834,
      "оглянулся": 7835,
      "умол": 7836,
      "болезне": 7837,
      "уверя": 7838,
      "снаб": 7839,
      "говорим": 7840,
      "обществе": 7841,
      "тис": 7842,
      "поверь": 7843,
      "von": 7844,
      "женщине": 7845,
      "новости": 7846,
      "возрази": 7847,
      "встрече": 7848,
      "скорости": 7849,
      "оцени": 7850,
      "плечу": 7851,
      "волосами": 7852,
      "мудро": 7853,
      "посторон": 7854,
      "шери": 7855,
      "поклонился": 7856,
      "июня": 7857,
      "выходу": 7858,
      "ya": 7859,
      "соч": 7860,
      "отвечать": 7861,
      "ковым": 7862,
      "вайся": 7863,
      "недостаточно": 7864,
      "бросив": 7865,
      "братья": 7866,
      "засмеялся": 7867,
      "подошли": 7868,
      "рабочих": 7869,
      "see": 7870,
      "стена": 7871,
      "книге": 7872,
      "рать": 7873,
      "дие": 7874,
      "ожидать": 7875,
      "собрать": 7876,
      "поче": 7877,
      "телен": 7878,
      "убедить": 7879,
      "поморщи": 7880,
      "учеб": 7881,
      "хлы": 7882,
      "признать": 7883,
      "родителей": 7884,
      "отправились": 7885,
      "разделя": 7886,
      "under": 7887,
      "нностью": 7888,
      "последняя": 7889,
      "лав": 7890,
      "сева": 7891,
      "черта": 7892,
      "ванный": 7893,
      "беда": 7894,
      "получила": 7895,
      "возвращаться": 7896,
      "ньян": 7897,
      "такси": 7898,
      "федера": 7899,
      "уверенность": 7900,
      "хмыкнул": 7901,
      "nu": 7902,
      "зависит": 7903,
      "дополни": 7904,
      "нологи": 7905,
      "дат": 7906,
      "удивление": 7907,
      "вшем": 7908,
      "покое": 7909,
      "руга": 7910,
      "раздели": 7911,
      "класси": 7912,
      "знания": 7913,
      "наклонился": 7914,
      "оше": 7915,
      "граду": 7916,
      "двоих": 7917,
      "терпеть": 7918,
      "after": 7919,
      "яй": 7920,
      "hed": 7921,
      "sk": 7922,
      "нуне": 7923,
      "малейшего": 7924,
      "эльф": 7925,
      "называют": 7926,
      "скалы": 7927,
      "неза": 7928,
      "даст": 7929,
      "страсти": 7930,
      "точка": 7931,
      "шагнул": 7932,
      "побежал": 7933,
      "разговаривать": 7934,
      "рку": 7935,
      "василь": 7936,
      "сеть": 7937,
      "следовал": 7938,
      "избавиться": 7939,
      "пули": 7940,
      "клянусь": 7941,
      "again": 7942,
      "лед": 7943,
      "родился": 7944,
      "прозву": 7945,
      "fir": 7946,
      "тари": 7947,
      "придвор": 7948,
      "tro": 7949,
      "выйдет": 7950,
      "напар": 7951,
      "повыше": 7952,
      "добиться": 7953,
      "накануне": 7954,
      "миром": 7955,
      "als": 7956,
      "фигуры": 7957,
      "сопротивля": 7958,
      "вного": 7959,
      "провали": 7960,
      "последним": 7961,
      "молодые": 7962,
      "городу": 7963,
      "sia": 7964,
      "справиться": 7965,
      "дабы": 7966,
      "насмешли": 7967,
      "единого": 7968,
      "шара": 7969,
      "зона": 7970,
      "зоны": 7971,
      "колю": 7972,
      "имена": 7973,
      "such": 7974,
      "населения": 7975,
      "змей": 7976,
      "уходить": 7977,
      "школь": 7978,
      "теми": 7979,
      "cor": 7980,
      "камней": 7981,
      "судья": 7982,
      "написано": 7983,
      "догово": 7984,
      "изменить": 7985,
      "сочув": 7986,
      "золото": 7987,
      "няют": 7988,
      "оставались": 7989,
      "плот": 7990,
      "ходите": 7991,
      "сделаю": 7992,
      "знакомых": 7993,
      "делала": 7994,
      "part": 7995,
      "сним": 7996,
      "льник": 7997,
      "коленях": 7998,
      "кладби": 7999,
      "резер": 8000,
      "позабо": 8001,
      "избежать": 8002,
      "ау": 8003,
      "мла": 8004,
      "видение": 8005,
      "ситуацию": 8006,
      "ват": 8007,
      "заклинание": 8008,
      "предыду": 8009,
      "кашля": 8010,
      "риту": 8011,
      "пунк": 8012,
      "добавила": 8013,
      "птицы": 8014,
      "свидетельство": 8015,
      "юго": 8016,
      "вторую": 8017,
      "помимо": 8018,
      "бод": 8019,
      "альном": 8020,
      "школу": 8021,
      "предприя": 8022,
      "гиль": 8023,
      "узнает": 8024,
      "сие": 8025,
      "зрение": 8026,
      "ленный": 8027,
      "действу": 8028,
      "судьбу": 8029,
      "уровне": 8030,
      "нало": 8031,
      "замолчал": 8032,
      "звонил": 8033,
      "комисси": 8034,
      "половина": 8035,
      "флота": 8036,
      "das": 8037,
      "незнаком": 8038,
      "локо": 8039,
      "дик": 8040,
      "простор": 8041,
      "площадь": 8042,
      "жется": 8043,
      "смеш": 8044,
      "спустился": 8045,
      "честву": 8046,
      "most": 8047,
      "угрю": 8048,
      "нёс": 8049,
      "очки": 8050,
      "томи": 8051,
      "шоссе": 8052,
      "крю": 8053,
      "лбу": 8054,
      "опы": 8055,
      "позволил": 8056,
      "звезд": 8057,
      "объятия": 8058,
      "задума": 8059,
      "захлоп": 8060,
      "гибели": 8061,
      "спорить": 8062,
      "корре": 8063,
      "60": 8064,
      "неизме": 8065,
      "защиты": 8066,
      "выпить": 8067,
      "ned": 8068,
      "галось": 8069,
      "слуга": 8070,
      "пространства": 8071,
      "led": 8072,
      "опере": 8073,
      "лился": 8074,
      "женное": 8075,
      "проворчал": 8076,
      "страте": 8077,
      "помнила": 8078,
      "джим": 8079,
      "бяха": 8080,
      "like": 8081,
      "ода": 8082,
      "разговоры": 8083,
      "бросилась": 8084,
      "бутылку": 8085,
      "поднялись": 8086,
      "масса": 8087,
      "дую": 8088,
      "стекля": 8089,
      "совеща": 8090,
      "only": 8091,
      "женщиной": 8092,
      "важное": 8093,
      "емого": 8094,
      "чур": 8095,
      "продолжали": 8096,
      "согласилась": 8097,
      "министр": 8098,
      "усме": 8099,
      "cer": 8100,
      "удосто": 8101,
      "ks": 8102,
      "прокуро": 8103,
      "губер": 8104,
      "потра": 8105,
      "тельном": 8106,
      "вед": 8107,
      "сож": 8108,
      "вызвал": 8109,
      "дайте": 8110,
      "провин": 8111,
      "пузы": 8112,
      "артаньян": 8113,
      "инже": 8114,
      "корабле": 8115,
      "старых": 8116,
      "затя": 8117,
      "юг": 8118,
      "соблю": 8119,
      "мост": 8120,
      "кового": 8121,
      "виски": 8122,
      "спрашивал": 8123,
      "сообрази": 8124,
      "вик": 8125,
      "любую": 8126,
      "пур": 8127,
      "собирались": 8128,
      "сопровожда": 8129,
      "зары": 8130,
      "бул": 8131,
      "править": 8132,
      "шест": 8133,
      "талки": 8134,
      "болезни": 8135,
      "крылья": 8136,
      "spe": 8137,
      "свеже": 8138,
      "энд": 8139,
      "дишь": 8140,
      "доспе": 8141,
      "перевод": 8142,
      "радостью": 8143,
      "повел": 8144,
      "башни": 8145,
      "кинг": 8146,
      "принято": 8147,
      "экране": 8148,
      "данный": 8149,
      "пустой": 8150,
      "отношений": 8151,
      "октября": 8152,
      "совпа": 8153,
      "пытается": 8154,
      "имело": 8155,
      "спира": 8156,
      "pen": 8157,
      "вив": 8158,
      "прищу": 8159,
      "хорошее": 8160,
      "гина": 8161,
      "чьей": 8162,
      "облака": 8163,
      "вье": 8164,
      "джона": 8165,
      "свист": 8166,
      "факе": 8167,
      "защит": 8168,
      "особ": 8169,
      "подло": 8170,
      "чертов": 8171,
      "службу": 8172,
      "лери": 8173,
      "называли": 8174,
      "спец": 8175,
      "высокие": 8176,
      "жели": 8177,
      "deb": 8178,
      "ведя": 8179,
      "путешествие": 8180,
      "мясо": 8181,
      "жают": 8182,
      "смотрю": 8183,
      "медицин": 8184,
      "вначале": 8185,
      "справ": 8186,
      "уверены": 8187,
      "bilan": 8188,
      "ваку": 8189,
      "страна": 8190,
      "маленькую": 8191,
      "удивлением": 8192,
      "писатель": 8193,
      "систему": 8194,
      "испытывал": 8195,
      "дед": 8196,
      "шепотом": 8197,
      "любить": 8198,
      "рича": 8199,
      "окну": 8200,
      "русской": 8201,
      "реке": 8202,
      "кабинета": 8203,
      "фай": 8204,
      "советской": 8205,
      "дию": 8206,
      "аро": 8207,
      "насы": 8208,
      "бесси": 8209,
      "гава": 8210,
      "целом": 8211,
      "рья": 8212,
      "любое": 8213,
      "серебри": 8214,
      "сход": 8215,
      "мум": 8216,
      "проводил": 8217,
      "гав": 8218,
      "будущего": 8219,
      "республики": 8220,
      "михай": 8221,
      "приятель": 8222,
      "кирпи": 8223,
      "сках": 8224,
      "святого": 8225,
      "этаж": 8226,
      "задержи": 8227,
      "красные": 8228,
      "евреев": 8229,
      "брыз": 8230,
      "kan": 8231,
      "крыла": 8232,
      "tem": 8233,
      "собственные": 8234,
      "находятся": 8235,
      "form": 8236,
      "прикоснове": 8237,
      "попали": 8238,
      "благополу": 8239,
      "эска": 8240,
      "этаже": 8241,
      "сомневаюсь": 8242,
      "магов": 8243,
      "обед": 8244,
      "свадь": 8245,
      "cz": 8246,
      "замести": 8247,
      "желу": 8248,
      "телу": 8249,
      "цеп": 8250,
      "вью": 8251,
      "особого": 8252,
      "поблагода": 8253,
      "забыла": 8254,
      "дост": 8255,
      "станут": 8256,
      "жадно": 8257,
      "читала": 8258,
      "захотелось": 8259,
      "имея": 8260,
      "сомнений": 8261,
      "рекла": 8262,
      "песок": 8263,
      "командира": 8264,
      "ненных": 8265,
      "полную": 8266,
      "лучших": 8267,
      "надеясь": 8268,
      "uch": 8269,
      "деса": 8270,
      "протяже": 8271,
      "прибыли": 8272,
      "странные": 8273,
      "находиться": 8274,
      "цветов": 8275,
      "независимо": 8276,
      "годов": 8277,
      "карье": 8278,
      "магазин": 8279,
      "собиралась": 8280,
      "долю": 8281,
      "грохот": 8282,
      "девушке": 8283,
      "лестницы": 8284,
      "счастья": 8285,
      "озабо": 8286,
      "обнаружили": 8287,
      "судить": 8288,
      "клей": 8289,
      "миледи": 8290,
      "преследова": 8291,
      "глазам": 8292,
      "выглядела": 8293,
      "lit": 8294,
      "тащил": 8295,
      "сердито": 8296,
      "цветы": 8297,
      "ябло": 8298,
      "поблизости": 8299,
      "перебил": 8300,
      "группу": 8301,
      "коменда": 8302,
      "kin": 8303,
      "оча": 8304,
      "усилия": 8305,
      "лекар": 8306,
      "лука": 8307,
      "суть": 8308,
      "пожало": 8309,
      "способны": 8310,
      "мировой": 8311,
      "рети": 8312,
      "вии": 8313,
      "суво": 8314,
      "пробо": 8315,
      "свободно": 8316,
      "наки": 8317,
      "вину": 8318,
      "крикнула": 8319,
      "взглянуть": 8320,
      "уцеле": 8321,
      "числи": 8322,
      "помещения": 8323,
      "малко": 8324,
      "материал": 8325,
      "квартиры": 8326,
      "филд": 8327,
      "отказаться": 8328,
      "жак": 8329,
      "гур": 8330,
      "внешно": 8331,
      "смогут": 8332,
      "джент": 8333,
      "коридоре": 8334,
      "директор": 8335,
      "холодный": 8336,
      "мия": 8337,
      "выделя": 8338,
      "отношению": 8339,
      "животное": 8340,
      "деду": 8341,
      "герман": 8342,
      "гостиной": 8343,
      "ухмыль": 8344,
      "mr": 8345,
      "мечом": 8346,
      "гость": 8347,
      "привел": 8348,
      "хлеба": 8349,
      "якобы": 8350,
      "компания": 8351,
      "попросила": 8352,
      "седь": 8353,
      "вих": 8354,
      "живе": 8355,
      "судоро": 8356,
      "насти": 8357,
      "международ": 8358,
      "выбраться": 8359,
      "здоровье": 8360,
      "лиза": 8361,
      "семе": 8362,
      "действительности": 8363,
      "ice": 8364,
      "забот": 8365,
      "считают": 8366,
      "товарищей": 8367,
      "проводить": 8368,
      "čy": 8369,
      "also": 8370,
      "принялась": 8371,
      "бед": 8372,
      "хорошие": 8373,
      "район": 8374,
      "ранее": 8375,
      "мела": 8376,
      "грин": 8377,
      "ничуть": 8378,
      "купил": 8379,
      "отечестве": 8380,
      "потрясе": 8381,
      "послушай": 8382,
      "отчетливо": 8383,
      "жалось": 8384,
      "выбрал": 8385,
      "дитя": 8386,
      "симпати": 8387,
      "тировать": 8388,
      "колы": 8389,
      "смотрите": 8390,
      "работой": 8391,
      "танце": 8392,
      "ner": 8393,
      "уехал": 8394,
      "тип": 8395,
      "кристо": 8396,
      "итали": 8397,
      "мори": 8398,
      "остановиться": 8399,
      "чиком": 8400,
      "живая": 8401,
      "чут": 8402,
      "вмеша": 8403,
      "плу": 8404,
      "фий": 8405,
      "водил": 8406,
      "клин": 8407,
      "доказать": 8408,
      "предпочита": 8409,
      "надолго": 8410,
      "198": 8411,
      "умерла": 8412,
      "ben": 8413,
      "погляды": 8414,
      "всякой": 8415,
      "умел": 8416,
      "чого": 8417,
      "романти": 8418,
      "хали": 8419,
      "вылез": 8420,
      "роста": 8421,
      "зая": 8422,
      "домом": 8423,
      "стам": 8424,
      "бросились": 8425,
      "тряб": 8426,
      "следовательно": 8427,
      "твоему": 8428,
      "случится": 8429,
      "оран": 8430,
      "сара": 8431,
      "нрав": 8432,
      "освеще": 8433,
      "племян": 8434,
      "санти": 8435,
      "идиот": 8436,
      "пещеры": 8437,
      "привлека": 8438,
      "напомнил": 8439,
      "нирова": 8440,
      "дове": 8441,
      "разница": 8442,
      "подобра": 8443,
      "способность": 8444,
      "посу": 8445,
      "тата": 8446,
      "мерз": 8447,
      "аэрод": 8448,
      "команда": 8449,
      "русского": 8450,
      "вест": 8451,
      "информация": 8452,
      "поцелу": 8453,
      "легкий": 8454,
      "обойти": 8455,
      "принца": 8456,
      "осведоми": 8457,
      "почер": 8458,
      "тир": 8459,
      "чечен": 8460,
      "сети": 8461,
      "vis": 8462,
      "заодно": 8463,
      "загоре": 8464,
      "конструк": 8465,
      "вражде": 8466,
      "тяжелый": 8467,
      "тяжелые": 8468,
      "щийся": 8469,
      "местно": 8470,
      "милая": 8471,
      "служил": 8472,
      "платить": 8473,
      "своя": 8474,
      "театр": 8475,
      "укло": 8476,
      "гибель": 8477,
      "превосход": 8478,
      "рубе": 8479,
      "отрази": 8480,
      "фици": 8481,
      "семью": 8482,
      "единственная": 8483,
      "друзьями": 8484,
      "поначалу": 8485,
      "обороны": 8486,
      "теры": 8487,
      "эрри": 8488,
      "подарок": 8489,
      "кнулась": 8490,
      "бке": 8491,
      "жек": 8492,
      "перевел": 8493,
      "sein": 8494,
      "музык": 8495,
      "невозму": 8496,
      "несчасть": 8497,
      "гол": 8498,
      "your": 8499,
      "dar": 8500,
      "гее": 8501,
      "ada": 8502,
      "собственных": 8503,
      "000": 8504,
      "покинул": 8505,
      "апреля": 8506,
      "шенный": 8507,
      "вано": 8508,
      "обращаясь": 8509,
      "холма": 8510,
      "джентль": 8511,
      "штор": 8512,
      "ченная": 8513,
      "вселенной": 8514,
      "скользнул": 8515,
      "ченное": 8516,
      "губами": 8517,
      "ракет": 8518,
      "такому": 8519,
      "пыл": 8520,
      "king": 8521,
      "проли": 8522,
      "ждений": 8523,
      "необыкнове": 8524,
      "мату": 8525,
      "циф": 8526,
      "кнопку": 8527,
      "трин": 8528,
      "собственный": 8529,
      "bosh": 8530,
      "неудоб": 8531,
      "хто": 8532,
      "задумы": 8533,
      "кухне": 8534,
      "пик": 8535,
      "хижи": 8536,
      "шай": 8537,
      "военной": 8538,
      "ide": 8539,
      "отряда": 8540,
      "делах": 8541,
      "опти": 8542,
      "лина": 8543,
      "очереди": 8544,
      "вдали": 8545,
      "волнова": 8546,
      "мрак": 8547,
      "стах": 8548,
      "джил": 8549,
      "чков": 8550,
      "линг": 8551,
      "col": 8552,
      "мирно": 8553,
      "понадобится": 8554,
      "едине": 8555,
      "идеи": 8556,
      "мороз": 8557,
      "вдво": 8558,
      "мато": 8559,
      "отдохнуть": 8560,
      "ph": 8561,
      "включая": 8562,
      "отклю": 8563,
      "действует": 8564,
      "чувствует": 8565,
      "приходит": 8566,
      "вуд": 8567,
      "дэн": 8568,
      "огромная": 8569,
      "северо": 8570,
      "ударом": 8571,
      "зили": 8572,
      "well": 8573,
      "моне": 8574,
      "хать": 8575,
      "интри": 8576,
      "пятидесяти": 8577,
      "серый": 8578,
      "сотрудни": 8579,
      "поздра": 8580,
      "мертве": 8581,
      "новом": 8582,
      "напрасно": 8583,
      "констан": 8584,
      "полтора": 8585,
      "посоль": 8586,
      "язви": 8587,
      "тъ": 8588,
      "ладонью": 8589,
      "бывают": 8590,
      "голово": 8591,
      "красного": 8592,
      "лением": 8593,
      "видим": 8594,
      "дворя": 8595,
      "лович": 8596,
      "давали": 8597,
      "невыноси": 8598,
      "сомни": 8599,
      "придержи": 8600,
      "ti": 8601,
      "двигались": 8602,
      "сгу": 8603,
      "cur": 8604,
      "покон": 8605,
      "сути": 8606,
      "тались": 8607,
      "закру": 8608,
      "купа": 8609,
      "футов": 8610,
      "жег": 8611,
      "оставалась": 8612,
      "коммуни": 8613,
      "фика": 8614,
      "главной": 8615,
      "императора": 8616,
      "пожале": 8617,
      "коридору": 8618,
      "ока": 8619,
      "пожела": 8620,
      "страи": 8621,
      "гнева": 8622,
      "меча": 8623,
      "собрался": 8624,
      "исключением": 8625,
      "какому": 8626,
      "дама": 8627,
      "выпа": 8628,
      "выступле": 8629,
      "довой": 8630,
      "ступал": 8631,
      "офицеров": 8632,
      "доказы": 8633,
      "габри": 8634,
      "виноват": 8635,
      "лло": 8636,
      "враги": 8637,
      "hat": 8638,
      "молод": 8639,
      "показалась": 8640,
      "подели": 8641,
      "консер": 8642,
      "let": 8643,
      "изменилось": 8644,
      "михаил": 8645,
      "эван": 8646,
      "высказы": 8647,
      "дурак": 8648,
      "сапо": 8649,
      "обеда": 8650,
      "последствии": 8651,
      "куски": 8652,
      "общей": 8653,
      "иванович": 8654,
      "факти": 8655,
      "юш": 8656,
      "скрип": 8657,
      "умы": 8658,
      "чувстви": 8659,
      "сделает": 8660,
      "давать": 8661,
      "уэ": 8662,
      "нете": 8663,
      "ческому": 8664,
      "экипаж": 8665,
      "маленького": 8666,
      "требуется": 8667,
      "негромко": 8668,
      "yu": 8669,
      "ира": 8670,
      "отом": 8671,
      "лео": 8672,
      "мога": 8673,
      "мастера": 8674,
      "возлюбле": 8675,
      "всерь": 8676,
      "йорк": 8677,
      "каллистя": 8678,
      "ричард": 8679,
      "каться": 8680,
      "беле": 8681,
      "наблюдая": 8682,
      "спрашивать": 8683,
      "чужой": 8684,
      "зуб": 8685,
      "писали": 8686,
      "наби": 8687,
      "содержи": 8688,
      "полным": 8689,
      "происше": 8690,
      "шпа": 8691,
      "крестьян": 8692,
      "свето": 8693,
      "гона": 8694,
      "принимал": 8695,
      "полицейский": 8696,
      "представление": 8697,
      "ностью": 8698,
      "алма": 8699,
      "января": 8700,
      "наполовину": 8701,
      "вск": 8702,
      "список": 8703,
      "математи": 8704,
      "почувство": 8705,
      "тером": 8706,
      "белая": 8707,
      "чности": 8708,
      "даля": 8709,
      "зрелище": 8710,
      "ственную": 8711,
      "частности": 8712,
      "трепе": 8713,
      "собака": 8714,
      "устрем": 8715,
      "прор": 8716,
      "крохот": 8717,
      "вчераш": 8718,
      "наг": 8719,
      "японии": 8720,
      "красави": 8721,
      "хий": 8722,
      "джони": 8723,
      "здравству": 8724,
      "two": 8725,
      "бэ": 8726,
      "думая": 8727,
      "лиан": 8728,
      "мсти": 8729,
      "набра": 8730,
      "ws": 8731,
      "праши": 8732,
      "возвыше": 8733,
      "ждением": 8734,
      "жертву": 8735,
      "коснулся": 8736,
      "покачи": 8737,
      "никита": 8738,
      "188": 8739,
      "ковал": 8740,
      "бород": 8741,
      "гут": 8742,
      "телеграм": 8743,
      "личности": 8744,
      "присутствии": 8745,
      "чному": 8746,
      "проход": 8747,
      "ноября": 8748,
      "ій": 8749,
      "хим": 8750,
      "пожала": 8751,
      "нится": 8752,
      "зира": 8753,
      "парла": 8754,
      "жертво": 8755,
      "блон": 8756,
      "жность": 8757,
      "дному": 8758,
      "причин": 8759,
      "овла": 8760,
      "человеческой": 8761,
      "шив": 8762,
      "велика": 8763,
      "струи": 8764,
      "включил": 8765,
      "риан": 8766,
      "монд": 8767,
      "клиен": 8768,
      "появление": 8769,
      "костра": 8770,
      "ined": 8771,
      "маленьких": 8772,
      "текст": 8773,
      "актив": 8774,
      "протяжении": 8775,
      "мальчишка": 8776,
      "весной": 8777,
      "устроить": 8778,
      "убедиться": 8779,
      "схо": 8780,
      "запя": 8781,
      "une": 8782,
      "приготовле": 8783,
      "бился": 8784,
      "привяза": 8785,
      "излу": 8786,
      "оскорбле": 8787,
      "хью": 8788,
      "теров": 8789,
      "тине": 8790,
      "look": 8791,
      "журнали": 8792,
      "nicht": 8793,
      "oc": 8794,
      "позвольте": 8795,
      "узе": 8796,
      "низи": 8797,
      "бран": 8798,
      "братьев": 8799,
      "зверя": 8800,
      "тяго": 8801,
      "умень": 8802,
      "печально": 8803,
      "полная": 8804,
      "описы": 8805,
      "сделано": 8806,
      "питу": 8807,
      "острове": 8808,
      "оператив": 8809,
      "откровенно": 8810,
      "мяса": 8811,
      "женную": 8812,
      "присло": 8813,
      "военные": 8814,
      "ought": 8815,
      "стного": 8816,
      "стис": 8817,
      "тварь": 8818,
      "вающих": 8819,
      "нутся": 8820,
      "презри": 8821,
      "берг": 8822,
      "экспедиции": 8823,
      "моль": 8824,
      "алом": 8825,
      "курсе": 8826,
      "языком": 8827,
      "грана": 8828,
      "конферен": 8829,
      "набира": 8830,
      "сутки": 8831,
      "сдержа": 8832,
      "вопроса": 8833,
      "отпу": 8834,
      "помощник": 8835,
      "get": 8836,
      "положила": 8837,
      "ласково": 8838,
      "расскажу": 8839,
      "царь": 8840,
      "активно": 8841,
      "изде": 8842,
      "психологи": 8843,
      "принести": 8844,
      "цио": 8845,
      "царя": 8846,
      "лучший": 8847,
      "выполнить": 8848,
      "ім": 8849,
      "погре": 8850,
      "вынул": 8851,
      "святой": 8852,
      "догадался": 8853,
      "получив": 8854,
      "чеством": 8855,
      "отря": 8856,
      "подборо": 8857,
      "грави": 8858,
      "прямой": 8859,
      "умеет": 8860,
      "попала": 8861,
      "мешок": 8862,
      "приле": 8863,
      "выяснилось": 8864,
      "повы": 8865,
      "реш": 8866,
      "нервни": 8867,
      "написать": 8868,
      "требует": 8869,
      "бассей": 8870,
      "гают": 8871,
      "целиком": 8872,
      "инстин": 8873,
      "нела": 8874,
      "рассказа": 8875,
      "sto": 8876,
      "дыша": 8877,
      "языка": 8878,
      "каль": 8879,
      "спокое": 8880,
      "ater": 8881,
      "пространстве": 8882,
      "хруст": 8883,
      "звонок": 8884,
      "товарищи": 8885,
      "узнав": 8886,
      "черчил": 8887,
      "свечи": 8888,
      "влюбле": 8889,
      "бров": 8890,
      "взволнова": 8891,
      "алексе": 8892,
      "замке": 8893,
      "барди": 8894,
      "атри": 8895,
      "гас": 8896,
      "гера": 8897,
      "противник": 8898,
      "вену": 8899,
      "щет": 8900,
      "называть": 8901,
      "заглянул": 8902,
      "подбородок": 8903,
      "sho": 8904,
      "дракона": 8905,
      "преры": 8906,
      "отвечает": 8907,
      "четыр": 8908,
      "пользоваться": 8909,
      "цкий": 8910,
      "допусти": 8911,
      "приготови": 8912,
      "толпу": 8913,
      "луны": 8914,
      "ордина": 8915,
      "long": 8916,
      "говорится": 8917,
      "покоя": 8918,
      "вёл": 8919,
      "стных": 8920,
      "интересом": 8921,
      "записи": 8922,
      "плете": 8923,
      "героя": 8924,
      "ильгет": 8925,
      "неслись": 8926,
      "сорока": 8927,
      "второе": 8928,
      "ced": 8929,
      "ref": 8930,
      "победы": 8931,
      "бью": 8932,
      "лила": 8933,
      "скам": 8934,
      "перехва": 8935,
      "молчать": 8936,
      "канди": 8937,
      "нравилось": 8938,
      "порядо": 8939,
      "поезд": 8940,
      "надпись": 8941,
      "признаться": 8942,
      "заслужи": 8943,
      "кнули": 8944,
      "сокру": 8945,
      "северной": 8946,
      "фотографии": 8947,
      "sol": 8948,
      "wr": 8949,
      "почи": 8950,
      "сив": 8951,
      "страну": 8952,
      "милый": 8953,
      "строя": 8954,
      "впоследствии": 8955,
      "оцен": 8956,
      "эс": 8957,
      "тельнее": 8958,
      "стное": 8959,
      "форм": 8960,
      "air": 8961,
      "забыли": 8962,
      "ручку": 8963,
      "стров": 8964,
      "религиоз": 8965,
      "класса": 8966,
      "ili": 8967,
      "дюй": 8968,
      "путешествен": 8969,
      "подар": 8970,
      "льд": 8971,
      "приняла": 8972,
      "дружи": 8973,
      "sich": 8974,
      "спектак": 8975,
      "портрет": 8976,
      "грамо": 8977,
      "ученые": 8978,
      "буркнул": 8979,
      "объясни": 8980,
      "живым": 8981,
      "возникла": 8982,
      "покрови": 8983,
      "выходя": 8984,
      "погле": 8985,
      "вига": 8986,
      "щены": 8987,
      "десятки": 8988,
      "полковника": 8989,
      "ази": 8990,
      "недав": 8991,
      "взяв": 8992,
      "гвардей": 8993,
      "короткий": 8994,
      "штука": 8995,
      "иници": 8996,
      "посред": 8997,
      "попробовать": 8998,
      "государь": 8999,
      "ищу": 9000,
      "мэл": 9001,
      "ряв": 9002,
      "видят": 9003,
      "алисти": 9004,
      "стенах": 9005,
      "взялся": 9006,
      "дверях": 9007,
      "ошелом": 9008,
      "цари": 9009,
      "делам": 9010,
      "подробности": 9011,
      "проме": 9012,
      "боялась": 9013,
      "болезнь": 9014,
      "рхи": 9015,
      "рение": 9016,
      "случая": 9017,
      "конан": 9018,
      "грустно": 9019,
      "свире": 9020,
      "направление": 9021,
      "сигарету": 9022,
      "слез": 9023,
      "человеческого": 9024,
      "армию": 9025,
      "опоз": 9026,
      "потери": 9027,
      "дились": 9028,
      "источник": 9029,
      "александра": 9030,
      "кнув": 9031,
      "самолета": 9032,
      "борьбе": 9033,
      "поворо": 9034,
      "гнали": 9035,
      "изображение": 9036,
      "ents": 9037,
      "влияние": 9038,
      "оранже": 9039,
      "org": 9040,
      "обычный": 9041,
      "вшимися": 9042,
      "кошмар": 9043,
      "ness": 9044,
      "леони": 9045,
      "района": 9046,
      "представляет": 9047,
      "терять": 9048,
      "прекрасный": 9049,
      "револь": 9050,
      "жалко": 9051,
      "прохо": 9052,
      "разрешения": 9053,
      "альными": 9054,
      "выбо": 9055,
      "стано": 9056,
      "подхватил": 9057,
      "fre": 9058,
      "бана": 9059,
      "сыном": 9060,
      "cau": 9061,
      "подобие": 9062,
      "ory": 9063,
      "тысячу": 9064,
      "оправда": 9065,
      "пройдет": 9066,
      "ковый": 9067,
      "дул": 9068,
      "бир": 9069,
      "пошевели": 9070,
      "превратился": 9071,
      "определенно": 9072,
      "нс": 9073,
      "мисти": 9074,
      "позвал": 9075,
      "вариант": 9076,
      "обстоятельствах": 9077,
      "тными": 9078,
      "данном": 9079,
      "джай": 9080,
      "мозга": 9081,
      "пос": 9082,
      "роваться": 9083,
      "отвернулся": 9084,
      "вленный": 9085,
      "сиденье": 9086,
      "даю": 9087,
      "предупрежде": 9088,
      "угрожа": 9089,
      "безнаде": 9090,
      "азия": 9091,
      "общее": 9092,
      "учителя": 9093,
      "детьми": 9094,
      "собаки": 9095,
      "сжал": 9096,
      "вавший": 9097,
      "оттого": 9098,
      "любы": 9099,
      "двора": 9100,
      "рассмотреть": 9101,
      "твоим": 9102,
      "задание": 9103,
      "спон": 9104,
      "чую": 9105,
      "продолжая": 9106,
      "президента": 9107,
      "петрович": 9108,
      "повоз": 9109,
      "сильным": 9110,
      "основания": 9111,
      "ственном": 9112,
      "изнутри": 9113,
      "побы": 9114,
      "маты": 9115,
      "всякие": 9116,
      "осуществи": 9117,
      "технологи": 9118,
      "ожидании": 9119,
      "кают": 9120,
      "занаве": 9121,
      "дана": 9122,
      "ствовало": 9123,
      "удовольствия": 9124,
      "густой": 9125,
      "случалось": 9126,
      "декабря": 9127,
      "давая": 9128,
      "предвари": 9129,
      "обеих": 9130,
      "сущности": 9131,
      "polit": 9132,
      "хла": 9133,
      "рав": 9134,
      "золоти": 9135,
      "града": 9136,
      "плыл": 9137,
      "изменения": 9138,
      "побледне": 9139,
      "поне": 9140,
      "воля": 9141,
      "мужем": 9142,
      "опубли": 9143,
      "переговоры": 9144,
      "озада": 9145,
      "детства": 9146,
      "ивана": 9147,
      "счастлив": 9148,
      "существование": 9149,
      "ярость": 9150,
      "настойчиво": 9151,
      "bi": 9152,
      "бже": 9153,
      "ковар": 9154,
      "мера": 9155,
      "рес": 9156,
      "регуля": 9157,
      "сергее": 9158,
      "низко": 9159,
      "опира": 9160,
      "нора": 9161,
      "арика": 9162,
      "ненависть": 9163,
      "дэй": 9164,
      "кинжал": 9165,
      "осмотре": 9166,
      "лодки": 9167,
      "сани": 9168,
      "мерно": 9169,
      "видения": 9170,
      "соблаз": 9171,
      "бросили": 9172,
      "сударь": 9173,
      "средств": 9174,
      "выстрел": 9175,
      "mak": 9176,
      "член": 9177,
      "кули": 9178,
      "океана": 9179,
      "поджи": 9180,
      "волк": 9181,
      "зеленый": 9182,
      "представления": 9183,
      "королю": 9184,
      "коридора": 9185,
      "снего": 9186,
      "означало": 9187,
      "нский": 9188,
      "переспросил": 9189,
      "закрыла": 9190,
      "потянулся": 9191,
      "послуш": 9192,
      "цепоч": 9193,
      "плана": 9194,
      "плевать": 9195,
      "въз": 9196,
      "винов": 9197,
      "сул": 9198,
      "начинается": 9199,
      "искусство": 9200,
      "присел": 9201,
      "трещи": 9202,
      "существ": 9203,
      "епи": 9204,
      "встретились": 9205,
      "хозяйка": 9206,
      "хм": 9207,
      "пальца": 9208,
      "зей": 9209,
      "шлись": 9210,
      "емая": 9211,
      "нисколько": 9212,
      "чувством": 9213,
      "зеленые": 9214,
      "процентов": 9215,
      "щеки": 9216,
      "пояса": 9217,
      "почу": 9218,
      "подле": 9219,
      "обернулась": 9220,
      "копа": 9221,
      "обращая": 9222,
      "местных": 9223,
      "подве": 9224,
      "слышу": 9225,
      "милости": 9226,
      "упорно": 9227,
      "жник": 9228,
      "колдун": 9229,
      "особой": 9230,
      "верный": 9231,
      "нашими": 9232,
      "сравнению": 9233,
      "металла": 9234,
      "атом": 9235,
      "серо": 9236,
      "арка": 9237,
      "военного": 9238,
      "тайны": 9239,
      "играет": 9240,
      "бомбарди": 9241,
      "флот": 9242,
      "дёт": 9243,
      "ort": 9244,
      "занятия": 9245,
      "удивилась": 9246,
      "разруше": 9247,
      "дъл": 9248,
      "мири": 9249,
      "морвен": 9250,
      "хотим": 9251,
      "эпи": 9252,
      "аппарат": 9253,
      "вампир": 9254,
      "рухнул": 9255,
      "dies": 9256,
      "безусловно": 9257,
      "дивизии": 9258,
      "tle": 9259,
      "полка": 9260,
      "ощущения": 9261,
      "беспоко": 9262,
      "звери": 9263,
      "человечества": 9264,
      "трой": 9265,
      "bar": 9266,
      "крестья": 9267,
      "bre": 9268,
      "авари": 9269,
      "экспер": 9270,
      "удержать": 9271,
      "коже": 9272,
      "леги": 9273,
      "являются": 9274,
      "военный": 9275,
      "вопросом": 9276,
      "гги": 9277,
      "перспе": 9278,
      "молчи": 9279,
      "помоги": 9280,
      "четко": 9281,
      "уселся": 9282,
      "гаться": 9283,
      "твари": 9284,
      "рублей": 9285,
      "урод": 9286,
      "скаки": 9287,
      "bet": 9288,
      "кался": 9289,
      "решать": 9290,
      "парта": 9291,
      "солнцем": 9292,
      "поступил": 9293,
      "высоких": 9294,
      "снизу": 9295,
      "прижи": 9296,
      "удары": 9297,
      "колеба": 9298,
      "философ": 9299,
      "женицы": 9300,
      "прожи": 9301,
      "брай": 9302,
      "вернусь": 9303,
      "сера": 9304,
      "силе": 9305,
      "лучшие": 9306,
      "любят": 9307,
      "буржу": 9308,
      "глубже": 9309,
      "сделав": 9310,
      "шагал": 9311,
      "охраны": 9312,
      "управление": 9313,
      "организа": 9314,
      "знакомые": 9315,
      "подождать": 9316,
      "ll": 9317,
      "случиться": 9318,
      "броне": 9319,
      "made": 9320,
      "рат": 9321,
      "зимой": 9322,
      "нского": 9323,
      "госте": 9324,
      "пев": 9325,
      "elle": 9326,
      "кад": 9327,
      "лям": 9328,
      "факты": 9329,
      "инспектор": 9330,
      "опи": 9331,
      "сато": 9332,
      "тельностью": 9333,
      "вдвоем": 9334,
      "приехали": 9335,
      "ванную": 9336,
      "беседу": 9337,
      "миров": 9338,
      "евна": 9339,
      "улыбался": 9340,
      "причиной": 9341,
      "деятельность": 9342,
      "вопроси": 9343,
      "потолок": 9344,
      "корпус": 9345,
      "ел": 9346,
      "ванные": 9347,
      "how": 9348,
      "преступления": 9349,
      "рассказала": 9350,
      "отошел": 9351,
      "мейсон": 9352,
      "вже": 9353,
      "детали": 9354,
      "очевид": 9355,
      "сталки": 9356,
      "остальным": 9357,
      "создания": 9358,
      "ослепи": 9359,
      "загляды": 9360,
      "вздо": 9361,
      "гули": 9362,
      "har": 9363,
      "зю": 9364,
      "мила": 9365,
      "роскош": 9366,
      "ступая": 9367,
      "голубы": 9368,
      "отзы": 9369,
      "выдержал": 9370,
      "преки": 9371,
      "була": 9372,
      "гитлер": 9373,
      "рения": 9374,
      "мик": 9375,
      "сюр": 9376,
      "банка": 9377,
      "бояться": 9378,
      "never": 9379,
      "сложи": 9380,
      "найде": 9381,
      "птиц": 9382,
      "навести": 9383,
      "тися": 9384,
      "заи": 9385,
      "улыбку": 9386,
      "нападения": 9387,
      "хер": 9388,
      "огромным": 9389,
      "льном": 9390,
      "удачи": 9391,
      "пальто": 9392,
      "обнаружи": 9393,
      "вспых": 9394,
      "заявила": 9395,
      "отло": 9396,
      "дении": 9397,
      "заставила": 9398,
      "матерью": 9399,
      "втором": 9400,
      "дрожь": 9401,
      "ила": 9402,
      "интел": 9403,
      "тул": 9404,
      "солженицы": 9405,
      "успеха": 9406,
      "транспор": 9407,
      "небольшую": 9408,
      "дится": 9409,
      "кустар": 9410,
      "обнял": 9411,
      "проры": 9412,
      "произойдет": 9413,
      "ченными": 9414,
      "стия": 9415,
      "перешел": 9416,
      "приходил": 9417,
      "насеко": 9418,
      "партий": 9419,
      "возбужде": 9420,
      "year": 9421,
      "рование": 9422,
      "демонстра": 9423,
      "жок": 9424,
      "сталкер": 9425,
      "кану": 9426,
      "большими": 9427,
      "безмол": 9428,
      "далека": 9429,
      "февраля": 9430,
      "прямь": 9431,
      "делами": 9432,
      "министер": 9433,
      "їх": 9434,
      "поехал": 9435,
      "женными": 9436,
      "лаборатории": 9437,
      "вгляды": 9438,
      "темной": 9439,
      "спрашивает": 9440,
      "успокаи": 9441,
      "иско": 9442,
      "конь": 9443,
      "сак": 9444,
      "пани": 9445,
      "волнения": 9446,
      "послан": 9447,
      "попытаться": 9448,
      "шина": 9449,
      "кут": 9450,
      "техники": 9451,
      "ножом": 9452,
      "пир": 9453,
      "этажа": 9454,
      "отыскать": 9455,
      "тільки": 9456,
      "старшего": 9457,
      "предложить": 9458,
      "кона": 9459,
      "рух": 9460,
      "обле": 9461,
      "дворце": 9462,
      "способом": 9463,
      "любовью": 9464,
      "полю": 9465,
      "академии": 9466,
      "покля": 9467,
      "отношениях": 9468,
      "жусь": 9469,
      "испуганно": 9470,
      "яв": 9471,
      "современ": 9472,
      "обшир": 9473,
      "строил": 9474,
      "горах": 9475,
      "таски": 9476,
      "стое": 9477,
      "shu": 9478,
      "страстно": 9479,
      "автора": 9480,
      "тайну": 9481,
      "съм": 9482,
      "nor": 9483,
      "разбой": 9484,
      "туи": 9485,
      "ктору": 9486,
      "установить": 9487,
      "розы": 9488,
      "гнув": 9489,
      "отой": 9490,
      "вавшись": 9491,
      "жертвы": 9492,
      "предупредил": 9493,
      "озеро": 9494,
      "людови": 9495,
      "настоящая": 9496,
      "брез": 9497,
      "ётся": 9498,
      "шой": 9499,
      "положено": 9500,
      "двигался": 9501,
      "надцатого": 9502,
      "париже": 9503,
      "творить": 9504,
      "переоде": 9505,
      "сное": 9506,
      "транспорт": 9507,
      "финансо": 9508,
      "марии": 9509,
      "парти": 9510,
      "церковь": 9511,
      "немцев": 9512,
      "фабри": 9513,
      "мертв": 9514,
      "галь": 9515,
      "открыто": 9516,
      "сдви": 9517,
      "изъ": 9518,
      "ён": 9519,
      "тях": 9520,
      "шлем": 9521,
      "последствия": 9522,
      "тихонько": 9523,
      "pi": 9524,
      "эх": 9525,
      "костей": 9526,
      "пробира": 9527,
      "траге": 9528,
      "всерьез": 9529,
      "стин": 9530,
      "зить": 9531,
      "нтами": 9532,
      "sy": 9533,
      "инте": 9534,
      "ответственность": 9535,
      "стки": 9536,
      "пешком": 9537,
      "кторов": 9538,
      "вскрик": 9539,
      "впрямь": 9540,
      "джер": 9541,
      "торе": 9542,
      "перебира": 9543,
      "дождя": 9544,
      "культуры": 9545,
      "владимир": 9546,
      "участо": 9547,
      "полет": 9548,
      "кучу": 9549,
      "летний": 9550,
      "свободы": 9551,
      "единственной": 9552,
      "перегля": 9553,
      "пошло": 9554,
      "песни": 9555,
      "дышать": 9556,
      "кувши": 9557,
      "совершил": 9558,
      "небрежно": 9559,
      "перспекти": 9560,
      "проез": 9561,
      "высоты": 9562,
      "белым": 9563,
      "пригласил": 9564,
      "фильм": 9565,
      "калы": 9566,
      "грейс": 9567,
      "моти": 9568,
      "разреши": 9569,
      "расплы": 9570,
[...]
